/**
  ******************************************************************************
  * @file    kws_network_data_params.c
  * @author  AST Embedded Analytics Research Platform
  * @date    Tue Jan 17 17:02:09 2023
  * @brief   AI Tool Automatic Code Generator for Embedded NN computing
  ******************************************************************************
  * Copyright (c) 2023 STMicroelectronics.
  * All rights reserved.
  *
  * This software is licensed under terms that can be found in the LICENSE file
  * in the root directory of this software component.
  * If no LICENSE file comes with this software, it is provided AS-IS.
  ******************************************************************************
  */

#include "kws_network_data_params.h"


/**  Activations Section  ****************************************************/
ai_handle g_kws_network_activations_table[1 + 2] = {
  AI_HANDLE_PTR(AI_MAGIC_MARKER),
  AI_HANDLE_PTR(NULL),
  AI_HANDLE_PTR(AI_MAGIC_MARKER),
};




/**  Weights Section  ********************************************************/
AI_ALIGNED(32)
const ai_u64 s_kws_network_weights_array_u64[22435] = {
  0x3e669ae33e748bb1U, 0x3e54f5863e9bf07cU, 0xbf66e900bd56eab0U, 0xbeaacd3c3ec77f2aU,
  0x3eb9e1fabeba616cU, 0xbc8768db3e9f3a5cU, 0xbe2863c83e8e6760U, 0xbf331b77be547057U,
  0xbedc08fe3d2ad800U, 0x3efd03b5bdcc37d6U, 0xbeb6fc813eb2a071U, 0x3e81dba23e9facd6U,
  0xbf198e84bed9f520U, 0xbef764483e165a50U, 0x3eeff7d2bdc5cfb5U, 0xbef2ccac3ebd802aU,
  0xbcd985aa3eaff7c6U, 0xbe886f28bce92a94U, 0xbe0600aa3da6dd62U, 0xbcb97b08beb07a65U,
  0x3f07ab3e3e3b9521U, 0xbe9144dd3dfcc605U, 0xbea343373e8217efU, 0xbec275d6bf5cb368U,
  0x3e5714e7bd31ef9aU, 0x3e853176b898b55eU, 0xbe1fd6013e88a6d4U, 0xbf0259333e9e07d9U,
  0xbef1cfe7bef73498U, 0x3f66852dbe3453e0U, 0x3e9224dc3db34a6cU, 0x3c9fa37b3da36203U,
  0xbebae9e63eaf2d94U, 0xbe7c7ae8bf0ea4e0U, 0x3df15fcabd9cadf7U, 0x3e8cb0ffbe32c0faU,
  0x3ecfbd8ebea448b1U, 0x3c8a0a933e396823U, 0xbf193bfebf22e727U, 0x3ef78b2bbdb844a3U,
  0x3e89a158be84ac93U, 0xbf1c0191bc71ef8cU, 0x3f162d86be574eb7U, 0x3df6ca1bbcf3abc8U,
  0x3f3354243f0e99d6U, 0x3f35846abe034cc2U, 0xbf539f133e665a5dU, 0x3e1d713cbea23858U,
  0xbdad328ebef506d9U, 0x3f597e4b3f6daef3U, 0x3e9a6a8cbdd53641U, 0xbf3951e63ea9765fU,
  0xbe00fb4cbcf8299aU, 0x3f1d66ac3d6554c5U, 0x3f79cfa83f0d1bb5U, 0x3ebd8c28be4ac924U,
  0xbe97c30f3de38960U, 0x3bfb5be33ed98ffcU, 0x3eada58f3f380c2aU, 0x3f8b2b523f03997fU,
  0xbd8989b6bd4350d7U, 0x3e8b4e1dbd3af3e7U, 0xbf73c061be442dacU, 0x3f817977bdf5f34aU,
  0x3d596da93f42d027U, 0x3ef6e3423e402f17U, 0x3e9ba861bd719140U, 0xbf9c1d79bcb858a1U,
  0x3f1ba505bef9f0e4U, 0xbe1b71b93ef6912bU, 0x3edf4da1be10808dU, 0x3eae551b3cbb76ddU,
  0xbf8e68183da28b3fU, 0x3ec4331fbf18c465U, 0x3e9f1a503eef29d8U, 0x3f0e006c3c40bb32U,
  0x3dd168f03e554cb1U, 0xbf886cb83e2f8b5fU, 0x3d1503bebe24858dU, 0x3f69f3563f7d8953U,
  0xbf93ce2cbe76b2eaU, 0xbd2805d63dce0cc4U, 0xbec2e59abed2e1aaU, 0xbe25c621bf0ebebeU,
  0x3edee8cf3efccfa8U, 0xbf2cbadfbe62d3cfU, 0x3e94cbd23d2fa2cfU, 0xbf07401cbee94651U,
  0x3db8befdbf2a1108U, 0x3eca3e0b3ea99030U, 0xbf3ed199be48a0f5U, 0x3d0f4b4bbdbbdf37U,
  0xbe4c7845bf08e87cU, 0xbe9b411dbeab0834U, 0x3f90e2283f09f6faU, 0xbe54243c3e59b1aeU,
  0xbc8d8473be9a571dU, 0x3d6bd16ebdc8170aU, 0xbe675bbcbe46ac9eU, 0x3f7b62133f535a7fU,
  0x3ef2effdbd3a2332U, 0xbef8bafc3ea835ddU, 0x3daa70563e079930U, 0xbe1068f5bf2fc82cU,
  0x3e52f497bdd08aecU, 0x3eb5eecdbde93345U, 0xbf4f3ec03e107f49U, 0x3ecbffaf3d6394fbU,
  0xbe8f84e3be6e7cf1U, 0x3f684b0a3e579b6dU, 0x3f2bba0e3ea0771dU, 0xbf87dc32be06e60bU,
  0x3c904c563d4cd31aU, 0x3df89349be9e5c1eU, 0x3f0832da3ea856e5U, 0x3edbf6843e5901e6U,
  0xbf25cdc8be1acc03U, 0x3ce0b27d3e0f6af0U, 0xbe269b5fbcc6d469U, 0x3ec4cc063e208d80U,
  0xbc5913ea3d332708U, 0x3e2d2d7ebe78739dU, 0xbef5b05e3d8660f8U, 0x3dfe10fcbf06459cU,
  0x3f402dac3e978c49U, 0x3de0ebe03ed081a6U, 0x3db157043de99c6cU, 0xbea85e813d8c521dU,
  0xbe079e1ebf730392U, 0x3f4d26203e82ed7fU, 0x3e163c6e3e76c9dcU, 0x3d1add59be08239bU,
  0xbdee22f83ead5d5fU, 0xbe355864bf810455U, 0x3f241e113f658b38U, 0x3e2490233dd7f1baU,
  0xbd79cbe93d942dfbU, 0x3c0e6a7c3e8ad20eU, 0xbeaac247bf3eeff4U, 0x3f4b6e343f87e1b9U,
  0x3e988726be812f9dU, 0xbe2241c4bed80d65U, 0xbcc51bf33e389870U, 0xbf3201c73d23090cU,
  0xbed138ce3f6c84fdU, 0x3ea91d66be86e6dfU, 0x3d0a20483e909812U, 0xbda3c6c73e2255adU,
  0xbe4f29e03cae8d1fU, 0xbf2bc77e3f3a54f4U, 0x3dc7369fbe81a8a7U, 0x3db8756d3f39b09bU,
  0x3d4d1f98be5bbb51U, 0xbebcd89abe8cc445U, 0xbd84f3723e5985a4U, 0x3e9881e3be491737U,
  0xbe680cf53f24ec3aU, 0x3ef382eebe803263U, 0x3e71c5c63dcc6f41U, 0xbe93ac443ebde621U,
  0xbe20b7ac3ea89c9cU, 0xbeb99371bdf750a9U, 0xbee963023dcc1e7cU, 0xbe1f9ade3f2ad2e2U,
  0x3dcae6dd3f0c912aU, 0xbd5a28d23e1d4d7aU, 0xbd9df3dc3e2bbf78U, 0xbe1edf5f3e0b21adU,
  0xbf0a49603f3caf59U, 0xbdcdbef63ea72a17U, 0x3e332dccbeb320a4U, 0x3ef0ccef3eccf0bbU,
  0x3f0068f43e4c4e8eU, 0xbe33c10c3f028a30U, 0xbdb012193e28bb42U, 0x3db7c52cbeb10891U,
  0x3e765f413f0f0a7bU, 0x3e9f23ee3ee34a53U, 0x3bea55fb3edd148fU, 0xbeebee543e384fd2U,
  0xbdd1f450be860c64U, 0x3d91c45e3dbc6c24U, 0x3eb3cac2be816642U, 0x3edbd163becf301bU,
  0x3e35c1c5bf477699U, 0xbf1060d93a4ec1e8U, 0x3db3f287bd197504U, 0x3dc531bdbe91d009U,
  0x3f35e83ebd8144b2U, 0x3f0a3b1dbf126916U, 0xbf0424513e28f13bU, 0xbb1dc6d6be2fc392U,
  0x3dbfec6cbec2e8bcU, 0x3e8181ac3f282789U, 0x3f268692bec55eb1U, 0x3d36ea613f89b6b0U,
  0x3e9c662dbe2f515cU, 0xbe8a6be1bf8ff959U, 0xbdf0d6ec3e104cffU, 0x3f0042e53d89d524U,
  0xbefceb363e4d80e2U, 0x3f531edc3ddfceceU, 0xbdb8e244becd4753U, 0x3ed595053e7ca62cU,
  0xbe60375a3f038a56U, 0xbf35abaebe8f5134U, 0x3f2ac367bdd7a302U, 0x3e785f77bea8e288U,
  0x3e9a747a3d254e61U, 0xbd6f53ef3f350142U, 0xbc3b5a8ab9233c8bU, 0x3eaf265ebeb6d34bU,
  0x3ead2e1b3e008902U, 0x3c2ba4403eac1a44U, 0xbe178ee63ee8b89eU, 0x3f0973f23ef9f334U,
  0xbd3a0d1cbec5bf64U, 0x3ea75d67be91c205U, 0x3e3ed9183e32e28bU, 0xbee3483f3f0e8d59U,
  0xbf1d8992be9854e9U, 0xbe6d7f6fbd032607U, 0x3ed2b2933df7d725U, 0xbc92ca463f76418bU,
  0x3f311cc7beb4204cU, 0xbf381b983d6a2b25U, 0xbf02d3ed3e0086e1U, 0x3ed313c0bdcbd414U,
  0x3eb6482b3eeea028U, 0x3eba154c3e2a7e9bU, 0xbe9e2af73de3782bU, 0xbf1b24d5bc4baad1U,
  0x3e9c3d3bbd60e0d9U, 0x3f047a8d3f01bc96U, 0x3f1e5d583eba9d24U, 0xbd2b5f1f3ef6f983U,
  0xbf0edf283e3de262U, 0xbd119348be3460efU, 0x3f0444e43cc7c1b2U, 0x3e90215d3ec244eaU,
  0xbef1eb7b3e7efa0cU, 0x3df6dacebde54c97U, 0xbd4b6e07beb3096fU, 0xbe6efabfbf2cdbbbU,
  0x3f4caf463e3cc144U, 0xbddb70363e8f8408U, 0xbeb2e67f3e3db60dU, 0x3e3224c9be063761U,
  0xbdbf3108bf1030c7U, 0x3f2bd96a3e8d4ba2U, 0xbe7d0e4dbda99efaU, 0xbf0d9c383e9b944aU,
  0x3eeaa9d33d9d30ebU, 0x3ea72645bf4e1e6eU, 0x3ea6d5cfbd837df1U, 0xbefe52c4bea625fcU,
  0xbefb73a43d965d75U, 0x3e5a23f13d8a9985U, 0xbd3caae9bf231c77U, 0xbe1c83b7bf3ff7f1U,
  0x3e035c56be41cc50U, 0x3f6a7ad33f283818U, 0x3dceeb61bf59dde6U, 0xbc87c7d23f1e8bb0U,
  0xbdf7b099bf6eab1cU, 0xbf58de69be826206U, 0x3f4f2a9d3f1db75cU, 0x3f0b7c2abed1801aU,
  0x3e0d51743f97e803U, 0xbe68ef0bbf3294b9U, 0xbfb4db60be6eb9d8U, 0x3e9cdffb3eef621fU,
  0x3ede30dcbe418a22U, 0x3eab4cbe3fb49b3eU, 0xbf124782bf82916fU, 0xbf73ce63be53e6e5U,
  0x3ee656683edd083eU, 0x3e11a25d3e8b1f7dU, 0x3f00a2d43f4d22fdU, 0xbe298dfdbf9c758fU,
  0x3dca80f53e8a44ffU, 0xbd844cb03ead5129U, 0x3f164532be020cedU, 0x3dd0873b3ed58ad0U,
  0x3f076691be963275U, 0x3e8cb664bbd2149aU, 0xbe33b4963e8c9818U, 0x3f7855a7bdcb6ea8U,
  0x3d583fc53eb41eb7U, 0x3f80f42f3efbf27fU, 0x3e7bd7203e8354f3U, 0xbecc4573bcbd0599U,
  0x3f4988b8bdfc3161U, 0xbf49ad47bdd4f839U, 0x3f2d1bee3f4cef00U, 0x3e733d823e93fe94U,
  0xbeb71b45be7351c1U, 0x3f21fea7be60f3c6U, 0xbe39a174beb2107eU, 0xbd8176113fc996e1U,
  0x3eab04e5bd990babU, 0xbd8ef6e63e9a26d7U, 0x3f074e343eef31e8U, 0x3ea61f953f0862f5U,
  0xbfb3f12dbf1cfdecU, 0x3e95e1da3dcfce6dU, 0x3b4581143c136672U, 0x3f32ea5d3e17a93eU,
  0x3ee6fc433f19a28eU, 0xbfaf128bbf1394daU, 0x3e247af5bbeb8960U, 0xbd9cbddebdb8946dU,
  0x3f49a1fb3e1e186bU, 0x3ce6a7de3f466431U, 0xbf59d8f9bf877faaU, 0x3df89aab3ec96862U,
  0xbd8f8132be96bc31U, 0x3f2d23603e48e55fU, 0xbdfa01c03f2b0fabU, 0xbf020e86bf1235dcU,
  0xbdcc60683e418265U, 0x3ec43354bd9346abU, 0xbf4129353c0e41c4U, 0x3d90c79d3d761555U,
  0x3e2c2759bee539d8U, 0xbe9a8dbf3c89a91cU, 0x3ed2c042bdf2ba7dU, 0xbed37e10bf216656U,
  0x3f00b03e3f0aebf3U, 0xbcf3c1e8bf20bf0dU, 0xbd8e97063eced7b5U, 0x3f01b19d3e60fcddU,
  0xbe421d07bf529f31U, 0x3e9338bf3ee8b08aU, 0xbe807d44be67540cU, 0x3e05136c3e9cab70U,
  0x3ebea8d93ccdafe0U, 0x3e06528abf68a951U, 0xbcde1bbb3e8270cfU, 0xbd091fd3bd8095dbU,
  0x3ed799253eaa947aU, 0xbe911138be55b637U, 0x3ed798a23edaa129U, 0xbf375612bcf0d566U,
  0xbe9124a4bf42257dU, 0x3f52e46c3db0ff59U, 0x3cc2ea7c3e575a1aU, 0x3e2674263e48f9dbU,
  0xbf366da3bb943187U, 0xbf309db5bf972c05U, 0x3f686b76be1860baU, 0x3de011693eb0edccU,
  0x3ed04eb33e6e9257U, 0xbf5edaa13f4baa60U, 0xbec78f33bfad1896U, 0x3f58585abeab1693U,
  0x3e342ffd3f10ed03U, 0x3ec424c83be6dae9U, 0xbf14984e3f34af8bU, 0x3dd9cad5bfa4f90bU,
  0x3dff2fd1bee66f86U, 0x3e73e351be5740a3U, 0x3ec026ff3f28ad19U, 0xbe5e8d78bf8da1c3U,
  0xbec6bd98be801fbbU, 0x3e71aca93e02a506U, 0xbd03ee553cac9bdbU, 0x3f31d2433cdcd11cU,
  0xbda8338bbfd17fa4U, 0xbebaa4233e9f9586U, 0xbcd8eed13e840b7eU, 0xbda2a227bd0bc46aU,
  0x3f26de013a3c1684U, 0x3cfa21f9bfb30d08U, 0xbefb25133e5fba51U, 0xbe2096bf3ee3f733U,
  0xbd85e42a3e9ca379U, 0x3f33f184bece30c4U, 0x3dfbc06cbfbe9270U, 0xbe93b6233d788380U,
  0xbf51cc11bcfd0899U, 0xbe06131f3ef48f90U, 0xbf0b43a23b18be4cU, 0x3eeb1e2cbf29e8d2U,
  0x3e40e6603ed20aecU, 0xbf1172103e78c703U, 0xbd9cdf093d8db6a5U, 0xbe8b32843e483b29U,
  0x3e219a3fbf947205U, 0xbdca8a1d3e994e87U, 0xbf5a70203ecc33b5U, 0x3e20bf11be237b1aU,
  0xbe8561a23ea16e46U, 0x3e44d78bbfa57409U, 0xbe26e2a23e618a88U, 0xbf4128553ea84675U,
  0x3e1d1b933c99b9bdU, 0xbf11b0b63e8e93e8U, 0xbec27eacbfad5399U, 0x3f201bc2be20d636U,
  0x3d83e8c5bdc8bc01U, 0x3ecc52863e91591bU, 0x3dc688e63dbd0058U, 0x3ed8e3e73f7d9fafU,
  0xbf8c30b2bf756d38U, 0x38353b2c3e2c4b2fU, 0x3c04046ebdbf80b6U, 0x3e9df3933cb59854U,
  0x3ebe68763f39d93fU, 0xbf8432a2be259a0aU, 0xbb816d9c3e1ab1a5U, 0xbe996de1bd43a860U,
  0x3e46310c3c7d78e2U, 0x3e7dda153f25fcf2U, 0xbf7f6c673c405418U, 0x3d39ddaf3eb83bf7U,
  0xbf1a7f62bec6bdd7U, 0x3ebd9da6beb7e6dfU, 0x3e00940f3f4f5cccU, 0xbf44de213ef7124bU,
  0x3e81aa69b975924bU, 0x3e71bc1fbe30b99cU, 0xbb2737413e96a87fU, 0x3f4eee74be65654dU,
  0xbfa20e2dbf552a9bU, 0x3ec95b023e93a17dU, 0x3e360c323dea0b19U, 0xbec5c51c3e7f2ca5U,
  0x3f399685bd7663b0U, 0xbf49025cbf41abfcU, 0x3f0af5523dcd85afU, 0x3e54b12ebcebdb1aU,
  0xbf90076b3ee53236U, 0x3e33cc323e23ae5fU, 0xbea3df16bf5b85e9U, 0x3eee29ef3d8a7eceU,
  0xbe831f153cd9f57eU, 0xbf5e36163e7b93bbU, 0xbe6930563f83478eU, 0x3dee913bbf25f146U,
  0x3daa90b13f15ecffU, 0xbd26f0b43ed39d1eU, 0xbedd58bcbdcd351eU, 0xbe7d4da63d8839efU,
  0x3d8d54213e02ce87U, 0x3e0324273e7b1daaU, 0xbe550f733d9ad299U, 0xbee402b5bdbd2a0bU,
  0xbe5f2c1c3b02a4b4U, 0x3cf8c05cbe1921d0U, 0x3baf1df53e069193U, 0xbdd9e15cbec44e42U,
  0xbecf3303be1156cdU, 0x3eae988b3e15e636U, 0x3e1ae4763eb810caU, 0xbcd98f13be427d51U,
  0xbde28890bf1f22c3U, 0xbf14d9f63e2c2b27U, 0x3eba2e223efb75b4U, 0x3e721974be2eb8edU,
  0x3ee115ff3ea7a16dU, 0xbe694e163e17bc59U, 0x3f903145bde53683U, 0xbe3aba453f4d5581U,
  0xbd1def9fbf8d1a83U, 0x3ea3be0cbe47796fU, 0xbebcd9a53d6f04bcU, 0x3f593fe9be8d75ebU,
  0xbe60bf0b3f2fb2d3U, 0x3eca0509bf688f26U, 0x3e2bb5d43ddf3451U, 0xbeba41a73d2619e8U,
  0x3f6f999bbe242621U, 0xbf5d202b3eca3491U, 0x3f8b3809bf25e77fU, 0xbe87dd9e3db88663U,
  0xbefa0a563ed012a8U, 0x3edeede13db25ec8U, 0xbf083c8bbea582d1U, 0x3fc1ccd8be293b6aU,
  0x3e40d6153e8289f4U, 0x3c55a220bea1f55fU, 0x3edb9c80beb13032U, 0xbfac52b4beb061d4U,
  0x3ef3b61ebdfe860dU, 0x3ee4c4bf3e8fff90U, 0xbe24ae37bedd81a6U, 0x3f13b710bc8c0325U,
  0xbf53ae17bf0f3b62U, 0x3f5e26e33ea43640U, 0x3e96064d3e7e0f95U, 0x3f19e861bd337879U,
  0xbd9c2e67be26c3fbU, 0xbeb0a14cbf2caf1fU, 0x3f0f97ed3e9ed1d1U, 0xbcc096d1bdb40e09U,
  0x3efa02293e918782U, 0xbef05c05be022747U, 0xbd2c3954bf26397cU, 0x3cc1fceb3f219204U,
  0x3e53e4163dc1e915U, 0xbe9b94a4bf0051d7U, 0xbe601ecabe35d560U, 0xbe564ef2bf80769cU,
  0x3ed023cf3f50761fU, 0x3e75bf8fbe75353fU, 0xbec77f893d75c793U, 0x3db63a3d3d83af92U,
  0xbf0c80babf70bc4aU, 0x3e7e25be3f401a66U, 0x3ece1425be20ba2aU, 0xbecc2f8d3de0409dU,
  0x3ea0231c3e817c0bU, 0xbf05d73fbf7caed3U, 0x3da33ac73f21a00eU, 0x3e2d82dabeec088cU,
  0xbe842a013e2ff2a5U, 0x3eb335fc3e6433c6U, 0xbf6a52cfbf63b63bU, 0xbde3dd5ebe5633ccU,
  0x3e4fa42a3d7e1be1U, 0x3cf848cf3cc8282bU, 0x3e372020beada4fbU, 0x3e265cebbf79fccfU,
  0x3f20bc833fbd2845U, 0xbcc656a03e884505U, 0x3eab03683e4d3d9fU, 0x3f0de001bd1ab2ceU,
  0xbf1b0dccbf931f83U, 0x3f5a63fe3f812675U, 0xbd38bf1c3e2b7811U, 0x3e1fff513821b7a0U,
  0x3f05565a3df40a58U, 0xbf7b0dddbf80a55aU, 0x3f2674823f7b3355U, 0xbe82674e3bbef158U,
  0x3e9cf6bbbee568beU, 0x3f07c3653e1fa6e9U, 0xbf889253bf216520U, 0x3f87633a3e823c35U,
  0xbf0c09cd3e8b4720U, 0x3de16105bb9aacd0U, 0xbcdce636bf18c82fU, 0xbf6a11763f1aef2aU,
  0x3ee6d4ffbea1db9bU, 0xbf0069953d9adfddU, 0x3e5d580fbe7a8b93U, 0x3de48bc5be1e34fbU,
  0xbf7b50333f2f59efU, 0x3f37f8ddbf85e45dU, 0xbed01fc2bd891e35U, 0x3f22d950bedf3dc4U,
  0x3eb24e20be3d881dU, 0xbee427003f5089fbU, 0x3f14350dbfbfc68eU, 0xbe9ce4a7bee75314U,
  0x3f2f8fc8bea4b812U, 0x3eafdc723c60f560U, 0xbf3b329b3f1ca1bcU, 0x3e7d4559bf88a5dbU,
  0x3d8d7b4bbde38b10U, 0xbe1c2f0e3f047983U, 0x3ce54dbebc847410U, 0xbf7e92763eca0662U,
  0x3dfb52c23f3bd874U, 0xbec96cce3dc5266fU, 0xbeae913a3e3775f2U, 0x3ba90f14be9ac1adU,
  0xbf80ddc83eb3dc90U, 0x3d37017b3f519991U, 0xbf0b01bb3e60d9d9U, 0xbdc031e3bd111461U,
  0x3e632a40be96e152U, 0xbf2e1e5b3f0b5e62U, 0x3e953e843f903cbcU, 0xbf4e32eb3f2af3b3U,
  0xbea84b5fbea1aa11U, 0x3ea82f4abe6c3eaaU, 0xbf2fa5d43e5f4483U, 0x3dcee0a33f3f1951U,
  0x3dd7d496bf0f4524U, 0x3cf0a03a3e6fee99U, 0x3e904cc6be9a79b2U, 0xbe8194713ee7cca5U,
  0xbe81f7083f3b5b05U, 0xbeebd056be7a7665U, 0x3eb06d993dbe0cceU, 0x3e860235be237ae8U,
  0xbe0509753efbf48eU, 0xbf0d243b3d76044fU, 0xbe00d18d3d49a827U, 0x3ea43a03be91d05fU,
  0x3d38af9ebe4ce1b2U, 0xbebec8a73ec6f90fU, 0xbe87da3c3d8cbac6U, 0x3dffa2f93e83cb27U,
  0x3dcd736dbe630125U, 0xbe71c443bcf16b28U, 0xbe6e84b0be42528cU, 0xbf0e6155bf221e34U,
  0xbf1fbbbbbdfaa71eU, 0x3e4cd9733eb411b7U, 0x3ea561d7beb583a6U, 0x3ecaf218bf870003U,
  0xbeded6f53f5e3941U, 0xbeeb200abdd95f1fU, 0xbe002c053e546bb0U, 0x3e5026113c784384U,
  0x3ea18081bf8d34f1U, 0xbeceaa363f39f9eeU, 0xbeeebb8d3d1c611fU, 0x3cf8fbfabe1d6836U,
  0x3eea583a3ea72dc3U, 0x3f28cdf4bf906486U, 0xbf188c123c00d126U, 0xbf1329a53e33189cU,
  0xbf263918be8730d4U, 0xbbebfc5dbe52bfb0U, 0x3f810a61bf81e8ffU, 0xbeee2d05bf3c612eU,
  0x3f557dcd3de1c610U, 0xbf1e6073be4e3971U, 0xbe970a4a3e8cf6e0U, 0xbde0d5f5bf9c0f17U,
  0x3f778c7c3f1e8f22U, 0x3f3e9160bd91c7d1U, 0xbedf8be13ec8543cU, 0x3f4474983e82f770U,
  0xbf043bbebf3de8f1U, 0x3ef0681e3f145b4bU, 0x3ec26840be3359cfU, 0xbebd543c3e2c07e0U,
  0x3f0300f7bea2a321U, 0xbf2ec6d5beb93462U, 0x3f4fc03b3f20b9deU, 0x3ec27c77bd2119fdU,
  0xbf068ade3d97bf0dU, 0x3f3e4369be71d0c7U, 0xbebe7de13db36d32U, 0x3ebdb7ae3e6386b7U,
  0xbce90a35be16c55fU, 0xbe7040c2bdf26490U, 0xbee85ab53e8afbdbU, 0xbe616b593ce88f94U,
  0xbdd82c1c3cf350fdU, 0x3f0a1f06bd8451cbU, 0x3ec19951be848f0dU, 0xbf231ba5bdd1b825U,
  0xbed6cb22be433161U, 0x3e0ff98b3ebaf0c2U, 0x3eb9dab23da43329U, 0x3f0b184ebe2e5622U,
  0xbf1be658bea62ae2U, 0xbee0613a3e999211U, 0x3f4a195abd8f840bU, 0x3e8bb03f3da47defU,
  0x3f10af1b3cdd6781U, 0xbe383491bce98facU, 0xbdc5016f3e62b4bdU, 0x3f251b83be903c36U,
  0x3f48d0c73d32713bU, 0xbe1d6531beab1615U, 0xbe32f5103dcca6c3U, 0xbea0d445bee903d7U,
  0x3ec8afadbea4ac5aU, 0x3e9ac158bd717545U, 0x3e57373dbda8222aU, 0xbeea59cbbdbd4194U,
  0x3e8d9ef43d36a871U, 0xbec8e7d2be8815bdU, 0xbea2d09d3e5c0683U, 0x3f18179f3d38d792U,
  0xbf79d206be6dfaa4U, 0x3f063fb43ed69e08U, 0xbefd610abf53c7a6U, 0xbf0794cabd7e8d76U,
  0x3f60a0193e7c3309U, 0xbf9234c6bec3ef90U, 0x3f08920f3f377680U, 0xbe6b38f0bc613225U,
  0x3f98d2163e148715U, 0x3ea59e90be222bffU, 0xbdc5f1623f0f60f2U, 0xbf33b54fbf20b0aaU,
  0xbe27b9a4becdba1aU, 0x3f8cad80bd847642U, 0x3f41b1c4bd9b239fU, 0xbe8886263f243de9U,
  0xbf82b6033dcdc2e0U, 0xbed76cb3bdce922dU, 0x3f91f157be45e973U, 0x3f7484283daae4f9U,
  0x3f0dbcf7be025ce0U, 0xbf9062513e43711eU, 0xbea2cf5fbf0681b3U, 0x3e5204c1bf1b5783U,
  0x3f21ce26be3003b1U, 0x3f4d707c3d095f74U, 0xbf670b3abd2814d6U, 0x3c20be5fbe47ad31U,
  0xbe9609fe3f067e3cU, 0x3e746601bdeae0baU, 0xbd6c22fdbebc2331U, 0xbe86e5f2bf8fbce7U,
  0x3dbd9d9c3f2017acU, 0x3e59f468bc9c50d3U, 0x3e1536db3e236703U, 0x3e12443fbd87aed8U,
  0xbf0feb4cbf9fc2cfU, 0x3eef221e3e339488U, 0x3d747ae5be8ef25aU, 0x3ec663533dae0819U,
  0xbe66f3a73ed2d267U, 0xbfbbf852bf788bdaU, 0x3eb2ddf3bea043b4U, 0x3f178e27beb65278U,
  0x3e66c1c0bdbabd1aU, 0xbd72dd9a3ecebdddU, 0xbf27b770bf1b006cU, 0x3ee17a873d48cc38U,
  0xbe715031bebb3454U, 0xbdf3c9ddbe783222U, 0x3efe0f1f3e5878cfU, 0xbec4711e3e7b5c8bU,
  0xbe385f4f3ce699c2U, 0xbe2d3895be35c06bU, 0xbea57cb63d0754acU, 0x3f065ef73cbff3cbU,
  0xbf3fa152be23585eU, 0xbf3a90343cc3d873U, 0xbe39d9e8bd4dda44U, 0xbe88ad8d3e1c81adU,
  0x3f2a3cfabe84766bU, 0xbf52f9cdbe80629eU, 0xbeb1a35a3e5b4f88U, 0xbd6942f23e91f836U,
  0xbeb8abba3e913ddfU, 0x3f2a16d9bebabcdbU, 0xbf521a1cbf04ac46U, 0xbf370bc83f0532d1U,
  0x3e197fbf3e056252U, 0x3d1777e2be507a33U, 0xbea0f6233eae75ffU, 0x3efe1b0dbe2d46d0U,
  0xbee9e522be1823b2U, 0x3e6eb293bd0e767fU, 0x3ed95272bda8b431U, 0xbf3a9e473e7c7f1dU,
  0x3c790fdebe9cc290U, 0xbe3ea13bbf5db753U, 0x3e9d0ea1be021edeU, 0x3e03fa31be140e28U,
  0xbf09dbe03d0a6651U, 0xbe05e6b33ec07901U, 0x3dc95c45bf693be1U, 0x3e8351a1be13dbeeU,
  0xbea4ddbfbc6c7eaaU, 0xbea0e70ebe88def0U, 0xbd85a3d03f229415U, 0xbea18538bf6d1d01U,
  0xbec0df49bb3a901bU, 0xbccb5905bcb26313U, 0x3de9a4a33dfb5ab4U, 0xbe8188a1be7cc10cU,
  0x3f5254a83f93bdedU, 0xbec2d7f43e999fadU, 0x3e903d7dbde87535U, 0x3e836293bd0a3ad4U,
  0xbdc179ed3cecf5ffU, 0x3f86f5693f98df6dU, 0xbe542c423ec65755U, 0x3ddaef90be6bf921U,
  0x3def0712be140a80U, 0xbde306ad3eafd068U, 0x3f6454c03f93b589U, 0xbee9ff3d3eacecadU,
  0xbd83e5bebe87a470U, 0x3eb2a158be9cce7bU, 0xbea141e23e2ba8dcU, 0x3f678da33f99b1beU,
  0x3e3de54c3ea44ed3U, 0x3d1bb9ba3d8ab062U, 0x3d83fa893e407ea3U, 0xbf3fcdcfbf01a593U,
  0xbfb13a123f244fb8U, 0x3e8896ce3e04f7faU, 0x3eceb5053dc748e3U, 0xbe23e8c23ec43721U,
  0xbf5c402abf82b380U, 0xbf55a1243f23fff8U, 0x3ea3ca28bdcbbb0eU, 0x3e94814dbd91991bU,
  0x3e68692e3ea4a586U, 0xbf4ee1d8bf4d898bU, 0xbf9500543f30be59U, 0x3ec5daafbd96d7c9U,
  0x3da4548b3d01df9aU, 0x3cdeed1d3e50c2baU, 0xbea8954bbf7a70a2U, 0xbed2e26e3f26583eU,
  0x3d6b78003e577186U, 0xbe9b81d2bdbdf48aU, 0xbe579bfa3ecd3545U, 0x3f30f354bf3e5faaU,
  0xbf7e8d0dbec35019U, 0x3e460f173e904f6eU, 0x3e12fb76bed672bdU, 0xbf0046f33ecb9f18U,
  0x3f888a79bf25a69dU, 0xbf6926b93c74c3c7U, 0xbcdf3c6d3db07f3fU, 0x3e996254be889533U,
  0xbeed49283cd481ecU, 0x3f0b59f5bf17dc22U, 0xbec3c516bc568422U, 0xbc41fc91be8a5705U,
  0x3dbfcf27bd0e93a9U, 0xbf55138abec63a86U, 0x3ec83130bf30497dU, 0x3e3318bebe6fd9a0U,
  0xbceabb0d3c4bbffeU, 0x3d6ad2953e767c72U, 0xbf046746be39b43bU, 0x3e7264033ef0ef1cU,
  0x3ec23920bf337f5cU, 0xbec179eb3d364725U, 0xbc0bd475bd70c218U, 0xbecce108bcbb7ebdU,
  0xbd1170a73f1406bdU, 0x3e7125efbf5a9318U, 0xbf343c123d0cf123U, 0xbe567b4fbe3a14fcU,
  0xbe573313bddf02f6U, 0x3f02548a3f15f61cU, 0xbd9f56cbbf5a202aU, 0xbf2c225b3ddc090aU,
  0xbe22aaccbe9b4bacU, 0xbcd43e03be948074U, 0x3f10ee103ee9419eU, 0xbeb7fe0bbf1acef7U,
  0x3e90904e3ed27486U, 0x3ee440b2be2541b3U, 0x3e46c4d73f132406U, 0x3e71d4c53f0f8136U,
  0x3f41bec63e8fed9cU, 0xbd44a8903e2794f7U, 0x3ee0a3d0bee394e4U, 0x3f054ca33e271d8eU,
  0x3e0cdf013f08bcc9U, 0x3e52d6923d4c2d56U, 0xbda58bb63d5e9870U, 0x3f3a32c6be918ea1U,
  0x3f04e3e2be3edc56U, 0x3e9d6f753e2deb0fU, 0xbe13fa363f24235eU, 0x3bc2d03e3e482eafU,
  0x3ec70127be27b273U, 0x3d966f82beaacd7eU, 0x3f17807f3cd80954U, 0xbdff3bcd3ec6bb34U,
  0xbe9f8138bf09d107U, 0x3e19c1bcbaf2f7a8U, 0x3f933cc7bdadd28cU, 0xbed92052be80b078U,
  0xbe163eee3db0aea3U, 0xbdf19cabbeaf5dc1U, 0x3dd2caf3be41aa0cU, 0x3f82e400beb07c66U,
  0xbdf15b91be066c4eU, 0xbc377fb03f1d1a7cU, 0x3d3aeeb6be9d0a6dU, 0x3da52430be98144fU,
  0x3f2cbfcfbeea5599U, 0xbdc97219be3bdd65U, 0xbf0788023f47cbc4U, 0x3cf6b1dabe339805U,
  0xbe3fa54fbeb8f505U, 0x3f25f4dabea515b6U, 0x3e14296b3a1890c6U, 0xbe70a4a73f5a5b9dU,
  0x3e9017633d057995U, 0xbf2b69f13ec6d33bU, 0xbeb63928bf0b7871U, 0x3f36dcf43e6d072fU,
  0x3eb01fe3be186a95U, 0x3e82a2483d92da5aU, 0xbf352fc53d174206U, 0x3be2aa543c8aee0dU,
  0x3f89415f3c6aa1faU, 0xbf4d0f8bbea94655U, 0x3d976ba53ec2b5fdU, 0xbf0275c4be3e25f9U,
  0x3b57fb123eab18c6U, 0x3eb61a0e3d64ff61U, 0xbf8ec885bf63090eU, 0xbe0d2f8f3f2ba8b2U,
  0xbed654c7bf129a87U, 0x3ed3e95b3f329f89U, 0x3f3cd50c3eb57ff7U, 0xbf8f3e02bf730733U,
  0xbf69475e3e7c1586U, 0xbedcbdb3beb219d3U, 0xbe59260fbd3b56d0U, 0x3f8a3a0bbf300f89U,
  0xbf5122d4bef32956U, 0xbf885de53c7fc38cU, 0xbe0da3bbbe17e5c8U, 0xbea4db533e2320c6U,
  0x3f61597ebf0ceff2U, 0xbf2e225abe1d4d01U, 0xbf36c89b3e5754f8U, 0xbe63c773bdfe7fd0U,
  0xbe9b31e53e22a744U, 0x3fb28593bd581b2cU, 0xbec73829bea93a32U, 0xbe7e122abd93f813U,
  0xbf0388ee3e233f25U, 0xbe7e31c53d09963aU, 0x3fb46f5e3d3b19d6U, 0x3d5b8c17be831e54U,
  0xbf2d685abebe5525U, 0xbf31db76be45a57dU, 0x3f0aa4f9be4e28b1U, 0x3e3bfbfc3d3156deU,
  0x3e98eb0ebed2bc39U, 0x3e97841e3d8bb661U, 0xbc9065b6bde253d9U, 0x3ecaa0443e45f37fU,
  0xbecdcd3bbecd0c70U, 0xbf16ecb1bfbb891aU, 0x3f044d073ea8037dU, 0x3ec8a3343d04ae84U,
  0x3ed7b021bdd53da5U, 0xbe8a74b7be10d06dU, 0xbeb1c759bf873ff4U, 0x3f570b123e9f3b99U,
  0x3f37e17d3ecee91fU, 0x3e2a633ebea3e6c4U, 0xbe706a50be895923U, 0xbdbcdb06bf890d32U,
  0x3f26a94c3f0637bdU, 0x3e49be7c3ee86221U, 0xbf29e18cbedc22daU, 0xbd03e3633f82d90aU,
  0x3f7881f4bf60402eU, 0x3dbbdf553f1a6146U, 0xbe15cf373d8bc4e8U, 0xbef4631c3f095f84U,
  0xbe2b99a23fb9f85aU, 0x3ed393fcbf1c742aU, 0xbee510353ebcee60U, 0xbd0ebe59bd560467U,
  0xbe9fa9df3efcea8eU, 0xbe655ca43f763c50U, 0x3d44aa80beeb056bU, 0xbf48b8a93e105d14U,
  0xbd90fe99be83f869U, 0x3c030f9a3f2c6285U, 0x3defbcee3f759c6bU, 0xbecda7bbbf14477eU,
  0x3f34a60c3d549acaU, 0xbf24e9aa3d0a8e88U, 0x3d2c00613e4e2f68U, 0xbe3ddc66bf4e6273U,
  0xbf7177693c4733a5U, 0x3ee34c9fbd45c5ceU, 0xbf5313c0be192199U, 0x3d50c935bba3a8f0U,
  0xbe4d9d92bf434e37U, 0xbf40028a3f42b758U, 0x3ed64ed23e2a3de8U, 0xbef0707ebdcfe2eaU,
  0x3e5d4b1e3d8c063dU, 0x3e2e96babeacafc0U, 0xbedf1f143f59844dU, 0x3e1422143e5bfe6aU,
  0xbd156c36be18b128U, 0x3eaa97fcbe888a15U, 0x3eca082cbf09dcdfU, 0xbf1450503f96f6b6U,
  0xbf0dbe963e7b7078U, 0x3e8d612fbed22648U, 0xbebcf7bab9e33e6cU, 0x3f313708bdcc94e6U,
  0x3dca81463f844ac8U, 0xbec4c5933e625ad1U, 0x3f12bbadbe0a57aeU, 0xbeaf935f3e78f8beU,
  0x3e0f54cbbf2a619cU, 0x3f2dae8c3f465919U, 0xbf2b8911bd4f4476U, 0x3e8272e33e5ee7cfU,
  0x3e7823573eb94510U, 0xbeb5ae84bee2734aU, 0x3f5126ca3f6640c4U, 0xbf0f0ed7be111084U,
  0x3d7dd6fa3d9275b3U, 0x3ee64dd53e924263U, 0xbe819709bee54867U, 0x3f9c4b073f3694ddU,
  0xbddeb6483d5dd7e6U, 0x3e0c53dabe9c1c91U, 0xbe215745be6d30f5U, 0xbec7db313fcaeef6U,
  0x3ed61ce4be77aa8fU, 0xbe4208433d171269U, 0x3db65af7bc04d675U, 0xbeb7a480be736e7dU,
  0xbeee87343ff81a04U, 0x3e2b3046bd9a75b8U, 0xbe9f22de3e022a2dU, 0x3cf7726d3ec3b1c0U,
  0xbf07a47b3dab1fc2U, 0xbea9a7c6400be6baU, 0xbe5342bfbc9b86fcU, 0xbf00af99bdfeeb0dU,
  0x3dc50afc3e36e1baU, 0xbf12b4643e2cbefeU, 0x3d8b37ff40090d98U, 0xbf273081be549ca3U,
  0x3f5202cbbdc0e780U, 0x3e8726c0bc9c53c0U, 0xbf3700113d91ff3dU, 0xbef8595dbfeed957U,
  0x3ccb0ec73f9e7ca5U, 0x3f135c0c3e78a464U, 0x3f023ced3ebf608cU, 0xbeec3e3d3edfe714U,
  0xbf2131e9bfc78b5dU, 0x3f8ec1903f5068c2U, 0x3ebd928e3e081157U, 0x3ecf11a9be92cd90U,
  0xbe493d303ec4d8c3U, 0xbec84d27bf637e20U, 0x3f69304b3f1c3487U, 0x3e0a7c7abe3434efU,
  0x3ea65343bf0d82dbU, 0xbe5b0ceb3d870461U, 0xbf34b4fbbf0a8dffU, 0x3fd95f143f6d7507U,
  0xbed0be4bbf1ae8c0U, 0x3eb4aa4b3ead0840U, 0xbe86713bbe37d331U, 0x3e37336f3b3141b6U,
  0x3e443d263d608f2dU, 0x3f1140903dac4b54U, 0x3e67a4763ad2dce6U, 0xbf0250c3bc56add5U,
  0x3c5cdcf3bed7868cU, 0xbe1c9be2be2f6ceeU, 0x3f1245903edbedadU, 0x3dd8d532be973a9dU,
  0xbed5c4debe4978f3U, 0x3c432633bf525101U, 0xbe9a9775be955c4bU, 0x3ec4d6db3e43fd10U,
  0x3f043eb8bec5948bU, 0xbeb552f4beee3aadU, 0x3ebfef79bf1e7861U, 0x3ce05856bec9b9d9U,
  0x3e28e714be0be126U, 0xbd0c6aa63e2a0353U, 0xbeb5afadbf2695d4U, 0x3e3b4afdbe6dab0fU,
  0xbd36fabd3e259277U, 0x3d3d2bd93e5fb74fU, 0x3e5934e83ec79cc6U, 0xbefe097abf23ad79U,
  0x3dbf5bebbf2df37dU, 0x3e4723f13e442f48U, 0xbd12635f3caef652U, 0x3e30e84d3e829532U,
  0xbf03f175bf0162bdU, 0x3c5c34edbedee6d4U, 0xbd4029f33eb38822U, 0x3d6fb563be707e5aU,
  0x3e09337a3d9c3473U, 0xbe24e088be3d0334U, 0xbc4a4ddbbf54e774U, 0x3efc59f53efb1d01U,
  0xbe3272acbefffe5aU, 0xbdf1835dbe436f37U, 0x3ed7ce363f0baf03U, 0xbe3420d2bf3e2709U,
  0x3eaaf6853ea420a0U, 0xbe0e534cbeb79c59U, 0xbb940ffc3e0a81a7U, 0x3dfcaeff3ec0f7deU,
  0xbdc16f29bf4f449aU, 0x3f084ceb3e517284U, 0xbea8b92abdae0362U, 0x3db3454a3e705cd1U,
  0x3e5c93f53d722addU, 0xbebd7a6cbee4871eU, 0x3edabae63ee44a35U, 0xbea876843eb83b5aU,
  0xbcbc7a273e78aca2U, 0x3d7242cfbe60ef64U, 0xbe8e77d6be9b855bU, 0x3ed616b53d16fb89U,
  0x3e8d0d043e15d92fU, 0x3d9ef91b3e06dcd6U, 0x3e0c794a3c9304dbU, 0xbef9fdc2bf8888ffU,
  0x3e13c3a0befb6ed1U, 0x3ee7d8d8bdbd7028U, 0x3e22e7293e865e31U, 0xbdf070cfbe83575cU,
  0xbe2da136bf838845U, 0x3e748a563db388e8U, 0x3f0229e7be595331U, 0xbdae53943d936fe3U,
  0xbe830428be4ca1baU, 0xba1e4660bf4116f1U, 0x3eb3c01c3e69f5c4U, 0x3ed4fec53dc5658fU,
  0xbda1cee8bc17fec7U, 0xbec804e4beb0cdf6U, 0x3da99244be95e15fU, 0x3ce623873e3f2ef9U,
  0x3eefd257be546a7dU, 0xbe493f333df08b63U, 0x3ec1bc55be66487aU, 0xbe82b51d3f1f630eU,
  0xbf7a83febf503b2dU, 0x3f330a7cbf01aaaeU, 0xbdff5ecb3ee59c45U, 0x3e9429963e93175dU,
  0xbde9e4613eb1d6e4U, 0xbf133bb8bf335f39U, 0x3f28044dbeb2ca80U, 0xbdc4beca3ead59faU,
  0x3edb1a6dbd8ac26bU, 0x3eb9dd1a3eff4bacU, 0xbed76d88beaddcc7U, 0x3ebfa714be5834d5U,
  0xbe8ab78e3e79667aU, 0x3f95b8c23ebfc632U, 0x3e7964483f11fde9U, 0xbe83bf8fbf059f6dU,
  0x3ea742b13f3505dfU, 0xbf00735bbe2a86dfU, 0x3f47c1783eef3f31U, 0x3e932fcc3ebdf61dU,
  0xbfc211bdbf593d79U, 0x3e2defc33ee646ddU, 0xbe917168be1949a6U, 0x3f67d0da3e786bbcU,
  0x3ea9ad913e82b755U, 0xbf5989adbea09bbcU, 0x3eac48b73da9019aU, 0xbea91ba23e84bbf2U,
  0x3f0e01e83eaaa2a9U, 0x3ecda0d93ee61fc7U, 0xbefef1223e397186U, 0x3ef0b9273e2f37d8U,
  0xbe3c25d73deeb7d3U, 0xbdddc660be4a0bedU, 0x3f4721453f30d690U, 0xbee9b6853f3ba7daU,
  0xbd439d7abd931c43U, 0x3dfe2521bedb3fb3U, 0xbe62cacfbe594aafU, 0x3f7be74e3ddaf4fcU,
  0x3dc45bfc3f1a2e35U, 0x3ea3c8dcbc7036eaU, 0x3e14b432bdb3bf88U, 0xbedab651be35c5c0U,
  0x3f9e7ce83edffb2cU, 0x3dc04a2c3ec458feU, 0x3e1a36d13ea2eeecU, 0xbdd97efa3f02640dU,
  0x3c28dc73bca9493cU, 0x3f39283f3f2bce98U, 0x3deae0ef3f478832U, 0x3def5aea3d88465bU,
  0xbde699f83ece4341U, 0xbdcc09e93da17415U, 0x3f0d1b313f77ebe5U, 0x3e062b1ebaa7a0daU,
  0xbe2470133d6d2c48U, 0xbf49c5a6be87400dU, 0x3f871d163d03223eU, 0xbeefdd5e3d05c242U,
  0x3eb8c8e23eea5f5eU, 0xbf058e8ebe3aa8dcU, 0xbf75a4323e7cf53eU, 0x3eee78c3be1a721fU,
  0x3f024f303ea6866fU, 0xbebf71133ed9138dU, 0xbe5e6b49be4c2bb2U, 0xbf54a821bac3b77dU,
  0xbe1debe83e3ac6dcU, 0x3f49c41f3dfe5098U, 0xbf0bc3cf3e960ed9U, 0xbe9cf606be6908ebU,
  0xbf00caed3cd5e30dU, 0x3e944c7f3f13f88fU, 0x3f2673e83e94384cU, 0xbdd333533f2107acU,
  0x3e8cf8a9be5ff4afU, 0xbe8741883e444dbeU, 0x3ebd228abef87743U, 0xbeaf055b3ed70732U,
  0x3d2f9e483f210954U, 0x3db812e2bdc3237aU, 0x3e0c79a93e0da562U, 0x3dd5da13befc4142U,
  0x3e46ed7f3f0bfa11U, 0xbed970d23eab7688U, 0xbecb6559bea3822bU, 0x3eef79793e6476ceU,
  0xbe2b0ddbbcd02805U, 0x3e5c495e3f3739baU, 0x3dc5e3f63eb0e5e3U, 0xbeb7f0c1beb817ccU,
  0x3ef19b153e312747U, 0xbe639950beab1acdU, 0x3f3d30203f225002U, 0x3e9da5bd3efaf63bU,
  0x3f1c7b453d55f84fU, 0xbf41ac59bdf9636dU, 0xbefe08f83e399af0U, 0xbd941a3bbd366d50U,
  0xbe3a5c6cbfaa14ebU, 0x3f1fc84fbda9973fU, 0xbf7a02ff3e73008dU, 0xbe795c7cbdf642ceU,
  0x3e9d6fe93f972b74U, 0xbe6abc1dbf89d28dU, 0x3efec60ebd22bb30U, 0xbf4eb7ff3eab0d8dU,
  0xbe9387d1be28fadfU, 0x3f03df293fd444cfU, 0xbe0cf11ebf1ff2aaU, 0x3eb416083d9ac324U,
  0xbf561502bd2f6677U, 0xbf2b8caf3e897978U, 0x3e59e2273ff5cfdbU, 0xbde85a7cbe0263b7U,
  0x3e4f3f553ed42481U, 0xbe0239193ef8d254U, 0xbf2cc93e3def63f9U, 0x3c91c703bf18207dU,
  0xbdef6d413e48fee9U, 0x3efa77d93e37d327U, 0xbda159c8bd19f4cfU, 0xbefb19073eb8b02eU,
  0xbc5d2b81bf2065aeU, 0x3d72c334bead5444U, 0x3e4ddf84bcc77628U, 0xbe94a129be10c02eU,
  0xbd9402663f0daacdU, 0xbda305e1bf690ad2U, 0x3e4f7e7abdb49a1aU, 0x3ec07bd0bd61c190U,
  0xbf0d5444be8286f2U, 0xbe815e9b3eb15352U, 0x3e6157a5beed4b85U, 0x3f16f93bbe9810bfU,
  0xbf02d5a9be0abd93U, 0xbdd47b88bd32c4b0U, 0x3ef149583e581367U, 0xbd14e783beb3e6acU,
  0xbedcfca1be8946d0U, 0xbccd9957be55f8b4U, 0x3eb486b13e770269U, 0x3eee9dc93ebee727U,
  0xbe4ce22abedc0a7cU, 0xbf403681bf8f69acU, 0x3d73e1723e91929dU, 0x3f2bfe7f3e30468cU,
  0x3ed3fb363d816b6cU, 0xbefb6fe5beadb854U, 0xbf43dbbebf325c8bU, 0x3ea3a3273e570bb5U,
  0x3eb8dd48bddebac9U, 0xbe4255ecbdd651f0U, 0xbea4aefcbd3b616dU, 0xbf996af8bf03cf0cU,
  0x3f11c8d5be1a4746U, 0xbd79753abe8d81b8U, 0xbd8a85233e8dbbd9U, 0x3ee1462c3e0a8a7bU,
  0x3e00d533bf0da2c2U, 0xbf34c5293d94f5a7U, 0x3f6214523e65c0c7U, 0xbd3825d93f28e3efU,
  0xbeac5a803f26e7f3U, 0x3f998ca33f29ce6fU, 0x3f4926f23ee2bc2aU, 0x3e391185bf289d86U,
  0xbb59b1403f5d9f39U, 0x3d52c2a9be9e5be3U, 0xbfd742d33e934dc4U, 0x3fa86222bbca2b0eU,
  0x3f0c4f98bedad6a6U, 0x3f85ca21bdbe8a87U, 0x3f6eecfebf3fee16U, 0xbf460d82be67f536U,
  0x3e9d5c453ddbc0f3U, 0x3ea068cdbe4f4e4bU, 0x3efe4c133d40e5e3U, 0x3e100c57bf179aabU,
  0x3ef564873c587558U, 0x3f25110fbe8551f0U, 0xbe53735b3ee7be1bU, 0x3d5c268dbe3bb883U,
  0xbe1b8e2fbec35aaaU, 0x3f2f0cf8bcae1597U, 0x3f7b3fe73ebebf4eU, 0xbf4250f2bf0f405fU,
  0x3ea7977a3df2cc1aU, 0x3e2c5546be98c353U, 0xbf002ed4bec7ed0dU, 0xbe97a2793d9d974dU,
  0xbdedfe8cbe36c3e4U, 0xbe1af9fcbe951220U, 0xbdebc3d53dfff233U, 0x3e9168113b235782U,
  0x3cbff2a83dae6c3bU, 0xbe2a68d63ecc42d5U, 0x3c3ff09b3e25eb14U, 0xbee249213e893a7fU,
  0x3e590d57bcf061d8U, 0x3c4ca980bf2c545dU, 0xbebc93043e22cb4cU, 0x3df987293ecedc74U,
  0x3dc05fcdbe848d5eU, 0xbdb6796ebe3ef2a6U, 0xbef076233de6c9e4U, 0xbb8ab7433ed814bfU,
  0x3d999e96bd482451U, 0xbd1a17c0be07a0d7U, 0x3e0ed30e3e8aec61U, 0x3d0c09b0be92215bU,
  0x3d06dcdd3e6fc8c4U, 0x3ef73a153ed5525eU, 0x3e2086053e0a0b8dU, 0xbd734bf9be886886U,
  0xbe2aed2c3dd32ae9U, 0xbf4d6a1a3e8fed27U, 0x3d4a2f733e02469eU, 0x3efbb887bea44c57U,
  0xbea036fcbedae91fU, 0xbe6b03e9bd9eaf03U, 0xbe9c7f783e3a6273U, 0x3ec9ada33ef12d84U,
  0xbe9e4b77bed139d4U, 0x3e41d550becbfe6cU, 0xbd443c523e325a84U, 0xbcaedd1e3ebba6e9U,
  0xbef26a9dbc95a273U, 0x3e67a2ffbf41ea4cU, 0xbf6615ee3c21a381U, 0xbdafd5fbba1be9c1U,
  0xbeb4494ebf040248U, 0xbde9ffc53eecbeb3U, 0x3e45364abdd3f2dfU, 0x3c37ba49be0b7f5cU,
  0x3d0a952ebea9129cU, 0x3e76a78f3e2ea853U, 0xbf5d990cbe9a69daU, 0x3df9024f3e447dc5U,
  0x3eb8207cbeb3cf2fU, 0xbdfb3cb43c4f1777U, 0xbdb0d8f1bba6e473U, 0x3e478597bce06f1cU,
  0xbd0059033e80ff97U, 0x3e1abf223db89693U, 0x3f07d3febe552c88U, 0xbe4ffd8abee2d3c9U,
  0x3d6611fbbde360eaU, 0xbe8aaed5bf39ff4aU, 0xbfa2c39b3e13bdc9U, 0xbf3b5f38bebdd081U,
  0x3e2c5d83be0667c5U, 0x3dc2e81a3d2e2e86U, 0x3ecd38e63e8153c9U, 0x3e4454cb3cdf4899U,
  0xbdf94bed3ec1a9fbU, 0x3ec5226f3ea1aeceU, 0xbd9edfc4be67d1a5U, 0x3c915a73be71680aU,
  0x3eb78a84bf004f33U, 0xbe979488be8b7d8cU, 0x3eb61a0b3c77eeecU, 0xbe8bb2adbf172cd7U,
  0xbec3e5163ea6d598U, 0x3e912cebbdf9196dU, 0x3e1277dcbe15102cU, 0x3f1563ae3e95dfabU,
  0xbeff275bbe645279U, 0xbf1490b53ea8a97eU, 0xbe5d02693ea4906dU, 0x3dbe0f6b3e318a40U,
  0x3eeb2c39bf05320aU, 0x3eb850753d589d12U, 0x3e97ba93bea60ec8U, 0x3d8fdb713e16fc84U,
  0xbeac4b193ec06e3cU, 0xbf0f04b33eaed003U, 0x3e63c4893e53644fU, 0x3db0b8923e951116U,
  0xbe1dc1fe3d9e7d40U, 0x3ece90e1be0d33a6U, 0xbe81efcbbe9e3c45U, 0x3f286217bf194640U,
  0x3e0fc69e3e91d72bU, 0x3d94079abda8c796U, 0xbea0e2f13f042b3dU, 0x3ed13ba2bd046f51U,
  0xbe8c2ee93e5be2b8U, 0x3e1bd6f53db2227dU, 0xbd5574c7be9ff078U, 0x3e7a74afbd8a77e2U,
  0xbd0e420d3cc0b499U, 0xbf398ea83eba37e3U, 0xbf2a75dc3e80d859U, 0x3a9a1137bdcfc1c1U,
  0xbdacacd2bf2a2a00U, 0xbe91661b3f49391eU, 0xbda196df3d8562f1U, 0x3e2a2e11bed285a3U,
  0xbe32d181bf2b4ee0U, 0x3e4e752fbd42fd4bU, 0xbe801d66be9b6343U, 0xbeb297603ef61a29U,
  0xbd9e071dbdd44615U, 0x3dd42a223db12f49U, 0x3ed05dd4bea4c811U, 0xbe2ee86dbd5cdce2U,
  0x3e498a58bd0beaceU, 0xbe1fa5e9bd383816U, 0xbe973d3ebea64a7dU, 0xbda86921beb1babeU,
  0xbd1ce5ca3ec0234fU, 0x3ef27c053dbc230fU, 0xbe121cd43ec39501U, 0xbe47d55e3e96b87dU,
  0x3e57146bbed22deeU, 0xbeff2162beb106a8U, 0xbe1896103dad9f2aU, 0x3e8fe8993c952e94U,
  0x3ed276ed3ea8fb3bU, 0xbdaac7f23f0d992dU, 0x3e47192a3e6842f4U, 0xbe6a453b3e7c901bU,
  0x3e21c03cbe858d2aU, 0xbee11a1a3ec28422U, 0x3ebeb276bdae3175U, 0x3eb0a24a3e6ad8ddU,
  0x3e4ad71cbf2bd95aU, 0x3e571e8fbe15ef0bU, 0xbeabf03c3d42d88fU, 0xbdb2feec3e41f47dU,
  0x3e8e8a593e861655U, 0x3e36145e3cc6fb07U, 0x3f0d8a4f3e549408U, 0x3e2778c73e0b7b5bU,
  0x3b8b32923e665c38U, 0xbe17b5673daae524U, 0x3e5a6a1ebf29d0bfU, 0x3eb65041be1ae0e2U,
  0x3ec422e7bead7de4U, 0x3f40cdc83f08efdcU, 0x3cce8763be22a84fU, 0xbe1d4aaebe199b4cU,
  0xbf20d66ebef89487U, 0x3ed143b23f10ed2cU, 0xbf2d8566be8f0eb9U, 0x3d56d875be68d9d4U,
  0x3c3c9ee0bf209269U, 0x3eeed3843ec2a617U, 0xbc2af03dbdbeb753U, 0xbd614b2cbe30de4fU,
  0x3ef49b323e61ab62U, 0x3d9a75dbbf1e59dbU, 0xbec22e073ed210e6U, 0x3eb62ab1bda59c6cU,
  0xbf3e6ffa3e088889U, 0x3e863c6fbdaff881U, 0xbe834fc2bee8da8aU, 0x3dd99e113e2fde96U,
  0x3dfed72cbde0e2bfU, 0xbf1c6d863e4ee447U, 0x3daf8c043e3e01d4U, 0x3d598586be945572U,
  0xbe47d06dbdbb79d5U, 0xbe90a8fc3e6222bfU, 0x3e31d96cbeb171dfU, 0x3ea04a36beabe4c0U,
  0xbca670703ec5a1dbU, 0xbeb6ca873e1da5aaU, 0x3e74165fbc25be0aU, 0xbe02b089bed6339cU,
  0xbdf9e6d3bdebbcc5U, 0x3d8b15fa3e5b6f3eU, 0x3eafa4693db5ce6cU, 0xbc7653c1bda231c9U,
  0xbf46ccfcbe20e98cU, 0x3edd49903e12549bU, 0xbf030d593ddab1b9U, 0x3e5f52ef3e511e52U,
  0xbec93334bf180d8eU, 0xbf09c66bbe95f69eU, 0x3e9e84e4bf0c1ff0U, 0xbebf73d4be7163b3U,
  0x3bf8d9353dc7afb5U, 0xbdedbe593e54a72fU, 0x3eb2c74dbe814119U, 0x3e4ca3eebe61af17U,
  0xbed43dfd3d5efc96U, 0xbf13f3bfbe058b6aU, 0xbd055a12bdad6982U, 0xbf19a0113e0c874cU,
  0xbd2a8facbed48e43U, 0xbec48230bf1bed22U, 0xbe7d90473eab3483U, 0x3e099a9cbda0f050U,
  0x3eb21adc3e38807cU, 0x3e4703fc3e03535bU, 0xbe870792bdda2d94U, 0x3ebf3516be53350aU,
  0x3f1945c73ec541c1U, 0x3de4a58cbe7c89c7U, 0xbde85496bdc17d94U, 0xbf71b31bbea9de7bU,
  0x3cfb0a4fbe253c1fU, 0x3ebda282be0ba724U, 0xbef46fe23ec0369aU, 0xbdc99124380c80a8U,
  0x3e1c4736be95973dU, 0xbf07cfb1bf10f1a4U, 0xbefbefe73ed65456U, 0x3dd072fdbecf34b9U,
  0xbef671d3beb9b5adU, 0x3e0e5ffd3eeb9effU, 0x3ea9870d3deba898U, 0x3e3a166fbe43defaU,
  0xbe6fa1573c96b1ddU, 0x3e0b5f4e3e971517U, 0xbf6c0a75bf141243U, 0x3e766e39be8afd16U,
  0x3ccd035a3dfc78cfU, 0x3e1ad5be3ed431ffU, 0xbcb59c6a3eabbd26U, 0x3e3d67cabd90029cU,
  0xbebfb6003dde886cU, 0xbe423101beee87ccU, 0xbcc4edaa3f032f26U, 0x3d0494503e238a8eU,
  0xbbc381083e1d367eU, 0x3ead5b48bebbf873U, 0xbeeab0ea3e0817b7U, 0xbe37393cbf0315b2U,
  0x3dca595d3e280e36U, 0x3e8c1ae1bef1cea2U, 0x3ca40e1fbeac4237U, 0xbddb5cd73e9ebbb5U,
  0x3e21646fbeaa5948U, 0x3e8c8290bdb01faaU, 0x3e6342d03e391505U, 0xbe79c8463e775fcaU,
  0xbe9a3db2be146305U, 0x3ce1a7e4bec1b728U, 0xbec32009bdd31001U, 0x3ed03512beb42aacU,
  0x3eb37839bdef4107U, 0xbdfb225b3e88209aU, 0xbdd1b7f5bd2842e7U, 0xbe8cb76b3e9c035dU,
  0x3eaa2c14bdea890cU, 0x3ea5e791beb3bcd7U, 0x3e73d6613eb4e35eU, 0xbf08bf0f3d96abc6U,
  0xbe94db163e95f667U, 0xbeefbe8bbe3cd5ddU, 0x3e83c6143db8d23dU, 0x3f0adc75be2b0802U,
  0x3e9a9ea03f075942U, 0x3e20a8a8bf3165caU, 0xbc8f0167bf55ca92U, 0xbdc913263eade421U,
  0xbe31fd003ea3adcdU, 0x3d6530123ebdc01cU, 0x3e9a6d18befbe17aU, 0x3ee133e1beb4c0b8U,
  0xbdd399343e77ad92U, 0xbeaa2680bda268f1U, 0xbe56a5963eae4668U, 0xbc07e0fc3ead6aecU,
  0x3e9f7d4abe869c4cU, 0xbeaeaebd3df166e4U, 0x3d8417963cbf6fd5U, 0x3b1d86b4be2be6eeU,
  0x3d38a305bf00191aU, 0x3ecba6bf3e024addU, 0x3df63bb6be21efa1U, 0x399d78d53e15d8c1U,
  0xbc9df1c73eeb1ab6U, 0xbd6f3647bf2c8995U, 0x3d9e6e13bea80f77U, 0x3e8fbd47bcf14070U,
  0x3ed74e5ebe8a0a1cU, 0x3ef9209bbd1aa828U, 0xbe8bd8a43d28841fU, 0x3e15c4fb3e12f902U,
  0xbcdfef673d330964U, 0xbcc4d3debdfefdaaU, 0xbe96abdcbd8cb3b0U, 0xbe1cfdbf3f31e9a2U,
  0x3d9a0ab63d27f799U, 0x3e81b71bbe3fde42U, 0x3e4785693dc6e442U, 0xbe5c295f3e0dcae4U,
  0xbf0f01473ea8c6deU, 0xbca2cf6f3e262d51U, 0xbcafd3a33ed025fdU, 0x3d86779e3f25ce22U,
  0x3ecb13243ebf0c0aU, 0xbd3b778f3e4b5c76U, 0xbddf5f7f3df58eaaU, 0xbf313b79befafacaU,
  0x3ed68ccdbe0d9373U, 0x3dff61153c0bbd4cU, 0x3e23744e3f25b3eaU, 0x3cbfdd42bd3208aeU,
  0xbe8cf52e3ed0ccfdU, 0xbe982298bdd4df28U, 0x3eb2cf76be68f024U, 0x3ee84fba3de09f1aU,
  0x3e10692db9c71e12U, 0x3cef1279bf1de065U, 0x3df99461bd785909U, 0xbf0b63f43eccb3a6U,
  0xbf0446a33e4ef589U, 0x3f06b29bbe2c8987U, 0xbe9f9da13ee5bcd0U, 0xbe7040e0bdb7f37dU,
  0xbe757c523c977948U, 0xbe9aa380bf4f451cU, 0x3d36b3223ec07609U, 0x3e092f713d95c9beU,
  0xbf2647723e950736U, 0xbe94035a3e49ec73U, 0x3c42ec23bf036aadU, 0x3c06af383cca06a7U,
  0x3f2efb2bbe6d1577U, 0xbe9fa0143f1e0c86U, 0xbed22dacbcbba2e6U, 0x3e1c6bc5beca24ddU,
  0x3ee2d667bee8a61dU, 0xbf1053e5becea01aU, 0xbe4afdaa3e5ce930U, 0xbe020a6f3e899871U,
  0xbea4536d3e91b105U, 0xbead3f44be80bbe6U, 0xbea87787be93ff76U, 0xbdc52db6bf2d5440U,
  0x3ee7ea73bdc6119fU, 0x3eedff9dbe6f474dU, 0xbd3f1331bf016b27U, 0x3d84c7753ec39d1eU,
  0x3d56f6143c1bf7c2U, 0xbf2953233e4f4bfaU, 0x3ea0bd48bf26508cU, 0x3e01580d3e9c3a32U,
  0x3e5c8aa5bdca5529U, 0xbd675a4d3e3e797aU, 0x3edc277b3d4a28f9U, 0xbe1a9588bdbde3faU,
  0x3d4b09343f029a75U, 0x3eb4c8b13f5ab3f6U, 0x3f05060bbe36cef1U, 0xbeab91c5be4d8f22U,
  0x3c0dd5b23e408ef0U, 0x3d8482743d7bc219U, 0x3c2133eebf3f9e8cU, 0xbd83593a3f70311eU,
  0xbe231e0ebe3847fdU, 0x3f006ee93e11a83cU, 0xbe67c00abdc1a5b6U, 0x3dbb3927beabf04dU,
  0xbee5e04c3ed8c922U, 0xbee9c7ed3e060065U, 0x3e9d7d5ebe9f0f1eU, 0x3ddbf87c3dad7f4aU,
  0xbecadd32bd8f5194U, 0xbd6c12cbbd1b7f0fU, 0x3bd4ea1dbf51dfeeU, 0xbd7741b8bdbfa291U,
  0xbe344e723ddab3ddU, 0xbecf71ec3e5ec292U, 0xbe8991643e56e82cU, 0x3da4c92dbdbb3440U,
  0xbef2b6313e837f98U, 0xbe9c2f833b8329a0U, 0xbd4928b1bf012628U, 0x3d726e443e0d23cfU,
  0xbdb6e3c13e9287acU, 0xbd1e052cbe7f3d36U, 0xbbaedf95be3ccbc5U, 0xbe260987beb6da06U,
  0x3e7e576c3dbaba37U, 0x3eb943cbbe2bfdd9U, 0xbee74177bde718b1U, 0xbe8c46bdbe412ec3U,
  0x3e26bc313d95aa04U, 0xbe43633c3e9d6866U, 0xbf3d97a8bf0462d8U, 0x3e42678f3dfb8fbfU,
  0xbe4c5dd9be888bf0U, 0xbe891661bebb3415U, 0x3d8405f7bdda9703U, 0xbe7b8e2ebed62600U,
  0xbdde3a94be9e4986U, 0x3d594d473ea6fe66U, 0xbd9caa773c941648U, 0x3d043ea3bc407d0eU,
  0xbcea51b43d1a7bbdU, 0xbe2f538a3ec96ed8U, 0xbe9a9bf7be929088U, 0x3eae080abe3f4db3U,
  0xbd940f7cbd7ddf65U, 0xbf1903b03ea74dc5U, 0xbf0304113e0493b0U, 0xbee9480ebcc46accU,
  0xbdfb89bebdf9f73aU, 0xbebb365abea7620cU, 0xbe69f3853e4f2db7U, 0x3e180111be8bfc1aU,
  0xbea55d0e3ec2446cU, 0xbf185e493e8e6f5cU, 0x3f0a9d3e3e3b7189U, 0x3e672b4bbde0487aU,
  0x3f25c5d93f119e35U, 0x3ef454563edbe310U, 0x3eb9f605be78aec0U, 0xbe594e723d3d9319U,
  0xbf11bd22bf07c316U, 0xbf671e863dfdb591U, 0xbd6d5ad03e594835U, 0x3d843ada3e6e87eaU,
  0xbe46a79a3e2cab09U, 0x3ea4d04ebe451a06U, 0x3eccf3d53e5348c0U, 0xbe9275b8be49774aU,
  0xbe96f45f3e76c8d1U, 0x3d1e3df53dc5f2e3U, 0xbdae71c4bf548da4U, 0xbdfe8d763f1d753cU,
  0xbef540acbf3a784eU, 0x3f2378f8bd7b0896U, 0xbeb62915bf8bd425U, 0x3f245e54be7dc49dU,
  0xbed14a043ebf0387U, 0x3e8837a1bea1d3d0U, 0xbdd6c6efbe1a6730U, 0x3f086fc2bd8a93a0U,
  0xbfa3f8ccbef8426aU, 0x3d72a52bbec313deU, 0x3dc95532be48d1a2U, 0x3e25947bbdedea1bU,
  0xbf65b430bea8cacdU, 0xbf210bda3d496326U, 0x3e0417853e21a2b5U, 0x3e9adeddbc36ef8bU,
  0xbe9614b43e9c9f69U, 0x3e6fb25c3eda5955U, 0x3eea32c2bed0c245U, 0xbf7528bd3ecb6712U,
  0x3f21f1fd3ea9cc77U, 0xbf08e42ebeb3e0f0U, 0xbdafde8dbebe786cU, 0xbbde3c273e4c4e9aU,
  0xbf01f2f5bd76288fU, 0x3f07f2423eac3dbcU, 0x3f11aa0b3e7ca907U, 0x3e78b053bf4e4ba8U,
  0x3db3ee5a3f28badcU, 0xbd59ffc0beea6d78U, 0x3ea85b4c3f1a3683U, 0x3f139ea7be9c501cU,
  0xbeaa54f6bcde8b16U, 0x3d605bbd3e5e2968U, 0xbf12b835bf3fb28bU, 0xbce13b2e3e95bfdfU,
  0xbe4225143e2e8ec4U, 0xbee5d9f53e835d87U, 0xbf6094a53e926cfcU, 0x3ea2aa33be1af608U,
  0xbe1901d8be224f2bU, 0xbd5e4ee9bcfd2ac7U, 0xbe01e607bd42b83cU, 0xbc64652abe627d71U,
  0x3b9ae2043c688eaaU, 0x3c093891be141e68U, 0x3d5d9001be2bb650U, 0xbdfccffcbdb69677U,
  0xbe2f6bd1bdbd1b7fU, 0xbe2889d7bdf6113dU, 0xbcbc9a63bdc8d3acU, 0xbd8211c8bd58f923U,
  0xbc6718d7be2425fdU, 0xbdefeec9be080b92U, 0xbdd158583c149b10U, 0x3d828aa9bdcee701U,
  0xbe13cb33be16d68eU, 0xbd8f52cdbdbd5c6dU, 0x3d75378cbdbfd6e8U, 0xbd91c7bfbcfee91dU,
  0xbe0c490bbe1255e8U, 0x3d72c340be1bfa09U, 0xbe1b2064bca89198U, 0x3d44fd1fbe237dadU,
  0xbc43b02cbd90b929U, 0xbddc8f73bca0bd18U, 0x3bc22609bd578b34U, 0xbda7bc46bda79409U,
  0xbe0e0c443d69a07bU, 0xbd08a320bad9c0ecU, 0xbda50787bb92604aU, 0xbded25f1bda468ebU,
  0x3e5d75453d87b596U, 0x3e653419bd66de25U, 0xbec0be5fbf1defccU, 0xbd6a003abf3f58b7U,
  0x3f048bcdbe34a14eU, 0x3d487602be7c5217U, 0xbdc4ee803e8c701dU, 0xbf507323bef9687dU,
  0x3ebf6911bee1c818U, 0xbe536f37be679f58U, 0x3c06196cbd8f98c1U, 0xbd9af305bd389bc7U,
  0xbec79f78bf0d913aU, 0x3eab8f703db44c35U, 0xbed2619cbe9180b8U, 0xbcfa8555bef22b50U,
  0xbe5f5326bee66b84U, 0xbea6625bbd38bcaaU, 0x3d91a96bbe2fd661U, 0xbe5378de3e9b05e7U,
  0xbebe23cebe587913U, 0xbea2ca41be907fa2U, 0xbe8516993e40337dU, 0xbdc91896be06e30bU,
  0x3ee1ca5ebc6f7b21U, 0xbd79fe15bf1e4aa1U, 0xbdba3de13edd2467U, 0x3e0bea1cbf6182a8U,
  0xbd22a5503f212fe5U, 0x3d284f16bea372aaU, 0xbdefbb633bd539adU, 0xbdd785a53e8fc63bU,
  0xbe5224a9bded45b6U, 0x3e5746443dc001f7U, 0x3c45e7403eed16e8U, 0xbf201815bf611eaeU,
  0x3f003a25bef88accU, 0x3e2163013ebafbc8U, 0x3e37994cbe532b9bU, 0x3ddbc460bea8a279U,
  0x3e2ff31e3e41e7a4U, 0x3ef61ec1bd90c0c6U, 0xbd7090863ee4e766U, 0xbed6a97fbcb35fddU,
  0xbf7b2207be8c041eU, 0x3e91f7433dd077f0U, 0xbe00049d3d9208baU, 0x3e6745423d88ae6cU,
  0xbe8ec143be8b96d7U, 0xbb06a1083e63a115U, 0x3df8bb8ebebf4c74U, 0x3db32eabbccdaa43U,
  0x3ec5fc2dbf4309e9U, 0xbe6516b0bf09a3ddU, 0xbf5566f5bed9cc4aU, 0x3f3df26a3e5fcce6U,
  0xbe9b33213eb2804cU, 0xbf11328a3ddfe1afU, 0xbe3198d8be83c849U, 0x3ee76907bf1840a7U,
  0xbe350582bd008bc2U, 0xbf488f17be16871eU, 0x3e65b204be99d682U, 0x3e86f0443db846b2U,
  0xbf2372a7bf2bee6fU, 0xbf0b32ccbd2e2761U, 0xbf0b1a8d3d3b239fU, 0x3ea4b7633c6039b0U,
  0x3dd26a8dbe924704U, 0x3cf3d6b9bec7ee73U, 0x3f5bcfadbc4b1a3fU, 0xbe6be837bf25ce14U,
  0x3e60acde3ec24045U, 0x3f1424c63dc4359cU, 0x3f15fae03dadb3d8U, 0x3e50e0833e4cb45dU,
  0xbc2c01cebe81c287U, 0xbeae2c8bbe535338U, 0x3f0f60d9be9933a7U, 0xbeb4892e3eaaf4c9U,
  0xbe911bbebe7c69e3U, 0x3e544ad2be56ea25U, 0xbe0f5f233e89ab3cU, 0xbf163259bec18c87U,
  0xbf09b97d3d32bd8fU, 0xbf0b4cd9bc41d2f4U, 0xbe76992bbf1f4318U, 0xbc94d725bf330632U,
  0xbe315346bd1294adU, 0x3e45e14ebf809359U, 0xbe0c0c07be859de1U, 0x3cce7ba8bf20f24eU,
  0xbeed348fbd7f5813U, 0x3eabf94d3e75e913U, 0xbed251373dde4e4aU, 0xbea57e2dbf7b4dd3U,
  0x3edd29edbe5df6eeU, 0x3be4c6e83ed54153U, 0x3e410475be13eac8U, 0xbdbdd7cc3e6eabfbU,
  0x3f1b2ea9bd20dae5U, 0x3e01fafabe153657U, 0xbf80c29e3cfb24f6U, 0xbf3fa0bcbe91efd5U,
  0xbc791b953e4743a5U, 0x3d790e11bf27da68U, 0xbda00514bf21345eU, 0x3dda3f783e076628U,
  0xbd486e25bd02ea63U, 0xbe00fd073e308a18U, 0xbcdb05663f0a586fU, 0xbe4212793e897ab8U,
  0x3e7b7831be036a41U, 0x3e8e7e18be753ee8U, 0xbe28c3b4bf074103U, 0x3e9799d3be8ecf42U,
  0x3c161df73ed1d6a8U, 0x3b3b61e9becd7b92U, 0xbebc6f94be503cb9U, 0x3ef46683be953847U,
  0xbda9dbee3e233aceU, 0xbe78d862bea2f85eU, 0x3e089c3dbdabc129U, 0xbe9ee0efbe61ff86U,
  0x3f006b12be14f4ecU, 0x3de945913d3f2b52U, 0x3d876c2cbd49b50fU, 0xbf50ef963ebe8b50U,
  0x3db4490bbd8ccba0U, 0xbc9e9d0a3e7252e0U, 0x3ef6a90e3e870153U, 0x3f09530d3f11b928U,
  0x3f2607b7beb2a8adU, 0xbe7f4127bf13c103U, 0xbf72fda1bedbcc73U, 0x3e4238e93e4c458fU,
  0xbd3221ffbe5dd0efU, 0xbe6874dfbe33b448U, 0x3eee57a53eab745cU, 0x3e46cd21be4bc188U,
  0x3e63feab3f38a9d1U, 0xbf1eef773e13b627U, 0x3d7a171ebd947abeU, 0x3f30e738bf00b909U,
  0xbee174a6be465346U, 0x3e4f0f833daa6bafU, 0xbf12ad7abecc1691U, 0xbde7bc82bf0a324bU,
  0xbdcdd318bbd8dc34U, 0x3e9464f8bf306201U, 0x3d11fd8abdeabfd9U, 0xbec8e5563e79dcf2U,
  0xbe24f1693d180c16U, 0x3d98290b3e4eedc5U, 0xbed69b09be869809U, 0x3ef89915be818218U,
  0x3ef319543d755275U, 0xbd13ec673ea8a161U, 0x3f32e215bce39a7fU, 0x3e8bba0cbebec792U,
  0xbef0ab0ebf297506U, 0xbe2120f5be434891U, 0x3e8af5dabf4768edU, 0x3e3be68ebba1e9d3U,
  0xbebca4123e02c79fU, 0xbe29f8213ee229afU, 0x3e9a84b93ef3d51cU, 0x3e778700bf3765b3U,
  0xbe362a8a3e424c4aU, 0x3f0afc913d8130ceU, 0xbee24a75bd98fbecU, 0x3e04fe71bf3a0d29U,
  0xbedda4c5bea99f82U, 0xbbcc7a913f0e8d90U, 0xbeb6446b3ef3d55fU, 0x3e796064be8d1a5dU,
  0x3e63d710bd7dd8b8U, 0x3ecdfcc6be839322U, 0x3e94be493e0012f4U, 0xbf023d4ebde70952U,
  0x3e1b61273e4bd2baU, 0xbd73587c3f1870b2U, 0x3f2e1b58bf2162beU, 0xbe89d29b3e8793e9U,
  0xbdc241f03e676649U, 0x3ead1b8fbe97d568U, 0xbeadc0fcbd386951U, 0xbdaeababbe2e966bU,
  0x3f17b9d53de8242fU, 0x3e733debbea7361aU, 0x3d9b01edbf3c23dbU, 0xbe4167933e8e04d1U,
  0xbd15fe453e357d4fU, 0x3e1fd49c3e5309c8U, 0xbd84c6dd3f071801U, 0xbe30498e3ce43904U,
  0x3f1f2a68bd2ea46aU, 0xbc1f463cbe947b5fU, 0x3ea36b75beef2bc6U, 0x3dc8bde73ef82a76U,
  0xbe4e32cdbf3646d6U, 0x3e3dfca23f08bc3fU, 0x3e2915963f0a217fU, 0xbf04d0683e787664U,
  0x3d4cd90cbe439898U, 0xbec4793a3d36c645U, 0x3e3633573f046a47U, 0x3ed5ca79be421ad4U,
  0x3ef3c8f7bd867669U, 0x3e92acbabd495da9U, 0xbe3dcdb0bf041e10U, 0xbe4a4a86be83a991U,
  0x3e0f27a3be617603U, 0xbf126438bf069ca0U, 0xbea3fc953eceb6c9U, 0x3ea734123e76e317U,
  0xbf4e055e3e05018fU, 0xbf04b54cbe903e89U, 0xbec019bcbcbd6a2bU, 0xbe462994be7ebdefU,
  0xbebe32dbbf43c584U, 0xbf17a3543eeda8ddU, 0xbd077d833eb2a7c4U, 0x3e3ba199bef765aaU,
  0x3e71b8dcbf159c60U, 0x3e8d0ab33ea891eaU, 0xbea65d80bec63f3aU, 0xbf2af0a23e08134bU,
  0x3f1df1ebbde9f792U, 0xbb841e1b3ea3682cU, 0xbcf427a83dbf3294U, 0xbf4d3828be9d2e7aU,
  0x3dad111dbe986b53U, 0xbda473a2beb117cdU, 0x3ee72fdcbe680217U, 0xbdc04315be724739U,
  0xbf25d2c83ea90b43U, 0xbe844ef83e3ff3cdU, 0xbe7d98393dc09cdfU, 0x3ea5e7993d2811bdU,
  0xbec2e6363d9b2103U, 0xbee1b439bf507e34U, 0xbf27d1043c61115cU, 0xbf2913c0bd7baadeU,
  0xbebc8cf7bdcbc769U, 0xbf2f6c1c3ea6b023U, 0xbddc5ce8beb39b55U, 0xbeeaf1d0bea103efU,
  0xbe359067be1f39f8U, 0x3ecbed9cbe2f6dfaU, 0xbdd85ebebde29553U, 0x3e6d173c3e86cf97U,
  0xbd703e2d3e15515cU, 0xbe4dda75ba0abf0cU, 0xbceba1fc3f1836d1U, 0x3e6f464d3e15361cU,
  0x3d8a6920bd599750U, 0x3daa6c97bea98252U, 0x3f41ee6d3e39cd3eU, 0x3e6be8423f23e519U,
  0xbed0c496beadeb10U, 0xbdbe0d71bd5188a2U, 0xbe9785d33e53e534U, 0xbec17986bdb0342aU,
  0x3ecfcb993eac15c0U, 0x3f21ec26be180888U, 0xbe5faed3be8270b3U, 0xbeb5bc6bbea7f32fU,
  0xbed2abc13f5d878eU, 0xbe9332113f12795dU, 0xbf307ae9bdefcbe5U, 0x3e02eb0dbdbb4c27U,
  0xbd7be45c3d8138e0U, 0x3e4829f1bde1ce3fU, 0xbdecd0e1be8781eaU, 0xbdcbf6ec3e1e4541U,
  0xbe9930b73e26156eU, 0x3f0e1888bf22dba9U, 0xbce112203dd49121U, 0x3e65aaf73f160632U,
  0x3eb853c63dd94fb4U, 0x3eca0168baa0ddaeU, 0x3dd5bdc7bedae626U, 0x3f22f15b3e65a5ecU,
  0x3edc9fd53e60b8a7U, 0x3df9ee71bf0783f9U, 0xbef3d0dd3e3565c5U, 0xbd413bdd3e1f99f9U,
  0xbdd43ea7bd967566U, 0x3e05cbdd3d952ce9U, 0xbe3cc7133e7fea6dU, 0x3c9c0967be0ac403U,
  0x3e0e0512bed2fca7U, 0xbd0d7ba53dfb7f55U, 0x3e7d3b543e82a696U, 0xbe68bb593d9230f7U,
  0xbdc1bdad3e2fb318U, 0x3f1f05d43e583dc2U, 0x3dff038dbf1c4a47U, 0xbecbbf06bf61cf87U,
  0xbf3a02153f30f0ebU, 0x3e2d09e4bdc9ad4fU, 0xbe64a33a3eb871a6U, 0x3f52c16b3eacb90bU,
  0x3ea73c69bf1d0b9cU, 0x3e69f739bf001364U, 0x3e1273673edf67b9U, 0x3ee4870dbde98d5dU,
  0xbf5f3990bd6d5809U, 0x3c9053253d5326aeU, 0x3dd2105abd0b00fcU, 0xbf266d07bf26fb4fU,
  0x3eb5d5143e947fc3U, 0x3dc716e43e2d75d8U, 0x3e3694d33ebcffccU, 0x3db589263e477698U,
  0xbf3473963e9a53f4U, 0x3dd8fcb5bf259881U, 0xbefe8b863de4d0d9U, 0x3e30c7f7bddcd9c7U,
  0xbf25cc70bd87db2fU, 0xbe82e6b23e2c28e3U, 0x3e97fcbabf286da0U, 0x3f16ca6bbc1af45bU,
  0xbe235145bf6bf499U, 0xbedb3c2a3c973c28U, 0x3dad13c23ee9aaadU, 0x3dd70877bf1b1d23U,
  0xbbce2496bea3bc3fU, 0x3a76a7d4bf283a39U, 0xbe9da099bdc25ee4U, 0xbf2b1de2bf6cbfddU,
  0xbe8b609cbe7ce474U, 0xbe7aaf49be8748d1U, 0xbe35a36dbdfb759eU, 0xbf16a519bda789a8U,
  0xbca37b20be5ac502U, 0x3e23a55e3e2b5a75U, 0xbec1f7e23e66ec06U, 0xbef8bdbd3e5853d6U,
  0xbecf2b473f1add7dU, 0xbc9513913da93f44U, 0x3e87f0f0bd5fe1e6U, 0x3e3dcf40bcb4f5d6U,
  0x3c27dd48be9deec7U, 0x3c18c126bf2400eaU, 0x3d01547f3e96fbf0U, 0xbf286daebf0e1d51U,
  0xbf265350be8a180fU, 0xbf091f633d27616eU, 0xbecc9f30be0dd6a2U, 0x3daa4245bebd16aeU,
  0xbf08dbc93ee8d0caU, 0x3e31c0a83f00d771U, 0xbf3e5dd63ea96a25U, 0x3e9d2e823d7f2575U,
  0xbf0d0ea03e19a2e8U, 0xbe05f8783ec34682U, 0x3d98c5473e67ed09U, 0x3e7eb4b3bb069c80U,
  0x3e987e4ebde46f7dU, 0x3f1781b93e85b585U, 0xbee172763e843a83U, 0x3e7122c9bee9f3d9U,
  0x3df86598bd3b43a1U, 0xbd8b7096bdeb3bebU, 0xbec41187bd688e39U, 0xbeb9d5a13de397a4U,
  0x3c59c0e0bdb0ba9cU, 0x3dcb7d453e56e905U, 0x3efe42623e7bea48U, 0x3ca33053beef4e36U,
  0x3d97ea41bdfab66fU, 0xbdf06b833e67dad7U, 0x3e9c06d83d9755efU, 0xbc0ca044bbbbd7c9U,
  0xbf10efbc3e16e3b1U, 0xbe9828933f268e35U, 0xbe6f47abbded639eU, 0x3ee585243f06309cU,
  0xbdf022b23df5cce1U, 0x3f04bcb8bcad9b98U, 0xbd714536be3900e0U, 0xbe3f53debeb887a5U,
  0x3efe72373e8abc2bU, 0xbf04e4fe3eb74dafU, 0x3e6551093e95fb1dU, 0xbe6bd786bb1240e4U,
  0xbed2a6a0be1f5219U, 0xbe231f8e3cdade2dU, 0xbead1460bf25def4U, 0xbe094765bf004a24U,
  0x3c1f76d33f114689U, 0x3ea3ccea3e9889e8U, 0x3f1cff833d723f44U, 0xbe42886dbea23c12U,
  0x3b4ad937bdac08d6U, 0xbc5fd7093ea8a991U, 0xbee480423e227fd9U, 0x3ecce058be516979U,
  0xbeaff973be139395U, 0x3d69a62bbe891307U, 0xbeb1aa443e6a5ee9U, 0xbd0e455bbed54ebeU,
  0xbd81f595bcb28373U, 0xbe1ef9eabd85e870U, 0x3effd808beb35085U, 0x3eafd59cbddaa3b7U,
  0x3e3ba1da3e55bcefU, 0x3e831f083f374593U, 0xbf126a53be9597b5U, 0x3e07ba7c3dfb9be2U,
  0xbe3887743f161651U, 0xbf159fd53cee8fb5U, 0x3ea7d7d3beba0ddfU, 0xbdefa555beed5a11U,
  0x3f00acf53dfbcec5U, 0x3e9b15043f030f33U, 0x3f46ff64bf479b2bU, 0x3e11a90f3e3b1f00U,
  0xbd727586be86c85eU, 0x3e4049d5be8b9d21U, 0xbeb7ad003e184750U, 0x3d0b18b23ec9bce1U,
  0xbed65621bf075873U, 0xbe93a51ebf089e8cU, 0x3ee58f3e3e33264cU, 0xbc318e863df69ec0U,
  0x3e8a611ebdd26a6cU, 0xbe0b1a1abc24b124U, 0xbe177992be48d1faU, 0x3e1f88d1bebb5b41U,
  0x3ee1a416be0dae9bU, 0xbe367b933e0cf64aU, 0xbdec1e98bf28d772U, 0xbcb12a3b3de65646U,
  0xbe117f06be4cbe16U, 0x3e97c3b1be861d78U, 0x3da32d5a3d75404aU, 0xbd01ddf53dce137dU,
  0xbec10ad3bf064650U, 0xbdc1ad7dbd8fdb34U, 0x3d80044abf2a5e46U, 0x3e6b9b7fbcf25011U,
  0xbe95a892be51fb66U, 0xbecd781cbe86c375U, 0x3f1709e4beee3e49U, 0xbe36d14fbe62ad66U,
  0x3e81f699be8c4891U, 0x3f168c33bb856783U, 0x3ca50b313c773afaU, 0xbea5e6e33e451d1aU,
  0xbdec173bbe5c928aU, 0xbe979d2dbf21781eU, 0x3d90123bbf26556aU, 0x3ca73567bf0a30f6U,
  0x3e25c5683f0a374fU, 0x3f09de7abde22d41U, 0xbd39a702be6b64b7U, 0xbf5dddd0bedfdd55U,
  0xbe55363e3e503f14U, 0xbe5ed96c3e876524U, 0xbf20d283be4d9864U, 0x3f0edf7cbe2dfe1cU,
  0x3dbec3213e6a12b5U, 0x3e2c9f27bee584c5U, 0xbe1065283e7aaa93U, 0x3eafb6d5bec0d559U,
  0xbe34831abe90ac55U, 0x3ed59e9bbeb48662U, 0xbf1532edbe0fc799U, 0x3e87139cbed38794U,
  0x3ef2f442bd459ea5U, 0xbe9077debdad5552U, 0xbe9ed4c63e4d9915U, 0x3f1889d2be398599U,
  0x3d87d6a73e2d5f75U, 0xbdb9551dbccb8128U, 0xbed760063ed77782U, 0xbf1d60243ee13370U,
  0xbd8fd26cbd0fe286U, 0xbd229aefbd568736U, 0xbd9157c2bd16ed18U, 0xbdde65babe59811bU,
  0xbe3c07ed3e4361d2U, 0xbdd32163bceb9460U, 0xbe9a38aebdb422e9U, 0xbe050499bd94f143U,
  0xbe35a1a8be9b2d0dU, 0xbee6618cbe3680d1U, 0xbdba412a3d988d7bU, 0xbeb45256be27ea04U,
  0xbd88c3de3db6d10dU, 0x3e88d007be318e91U, 0xbd4d34a3be4abf12U, 0xbe3366623d67a8acU,
  0x3e401ef0bda6091bU, 0xbeae9e1ebd9388d8U, 0x3d48195abeb8f703U, 0xbf0ebd00be8c9bb1U,
  0xbd066910be4c29efU, 0xbe997fa9be3610b2U, 0xbe165332be55dcdcU, 0x3d190f96be2818b0U,
  0xbef26fb2be10a509U, 0xbe2f4bb4be4e1dd2U, 0xbe9bbf78bf115a2dU, 0xbe8e77723deff2ecU,
  0xbe621d35bdc7ae17U, 0x3e62f396be4cd743U, 0xbbaa3707be117852U, 0xbd2fcd1d3c830aeeU,
  0xbea0847f3de7974cU, 0x3de2ee15bd2df08aU, 0x3ea1e24cbe167350U, 0x3d5f862dbea2fa04U,
  0xbf3be498bed9ad4cU, 0xbe8dd5523ea6fe56U, 0x3eae534bbef63a80U, 0x3e06aa6b3ebdb271U,
  0x3efb587bbe3b9b29U, 0xbefdde023e76f006U, 0x3eda13933f1fde20U, 0x3e3d86f43d8236c7U,
  0x3e95ef5abd1310b3U, 0x3e832cdfbef781beU, 0xbe81a295bd9feff0U, 0x3d98a4d03e735aebU,
  0x3e73689b3e28531eU, 0xbf1d9a79bd8e79d9U, 0xbcb479f4bca9e713U, 0xbe918bc1bdbb7a81U,
  0xbd7efd7fbdaad973U, 0xbefcf7e5bf0ad507U, 0x3f04f7d53f32d9ecU, 0xbedd8b7e3de3e098U,
  0xbe23ed013ee092d2U, 0xbf131460bdaf68fdU, 0x3dc0a8cc3d77e10eU, 0x3ee05091bf0b2b20U,
  0x3e05cc86bfa4223fU, 0xbe72d49c3e999ac2U, 0x3e23517ebdba04a8U, 0x3db3285ebe948fecU,
  0x3c8fe0433ec4cb76U, 0xbe2b728b3c93813cU, 0x3d452e30be9f8257U, 0x3e2399733db89da6U,
  0x3e874061be599bfaU, 0x3a29ba423eb8b1a9U, 0xbd6efc5bbf5e50cbU, 0x3e8ba3cbbee071b0U,
  0xbe7bd2bfbeabac42U, 0xbdf56394bdf78cfbU, 0xbe5974553d2b2df2U, 0xbe8b1b943eca5bc5U,
  0xbea6c79cbf25af9eU, 0xbe99d598beeab1f3U, 0xbf881a93bec79ccaU, 0xbebb6e7abdad0dfeU,
  0xbf0495ccbee353efU, 0xbf3611ddbe140017U, 0x3d2cc429be9f0667U, 0x3ea279373df1ab5dU,
  0x3c7f3307bedb56adU, 0x3f1f5497bee19a70U, 0xbe82568cbd895f05U, 0xbe2b6511be3a7c53U,
  0x3e832113bea3f9bfU, 0x3d3265973cc5b5f0U, 0x3c39f92d3eb37acbU, 0x3df316663e86a7aaU,
  0xbed30a783edbdc71U, 0xbc3466b43e220905U, 0xbf633deebe7948cdU, 0x3e86b035be168983U,
  0xbdb9f81abd8ca7beU, 0xbdf0abe2bdca1f27U, 0x3d9bd4e2be0ff3b4U, 0xbe0c9012bf033be7U,
  0x3d466d293bee2c6aU, 0xbedc186abe941ffdU, 0xbeb076e1be6ac387U, 0xbe1d65d53e48dc6dU,
  0x3df698d63d1d2fafU, 0xbccfdbd6bdfe6960U, 0xbc817906be9ce356U, 0x3db406063d89d9bdU,
  0x3e3cdc35be01d3bbU, 0xbe37e4cd3e23cc69U, 0x3dc532363e421169U, 0x3e4abe61bf663c43U,
  0xbd6e9a91bf4a08faU, 0xbf856167bebf1f13U, 0x3e9aba71be8e93f2U, 0xbdd2c506be3c5917U,
  0xbec75423be8b7227U, 0xbf3a7b2d3b1d67b6U, 0xbf2c19febe053f7bU, 0x3c2fc5cc3f121dfaU,
  0xbdd654c3bf1ba797U, 0xbe039fe2bf0f6f0fU, 0xbe32557cbd2aca05U, 0x3dc2a28fbea0b469U,
  0x3e5c185d3e8c2195U, 0xbeb6a069be0a5056U, 0x3d5a23bdbda36ff3U, 0xbe49d1d13e3d1392U,
  0xbd1c04aebef7ed65U, 0xbed2fd76bd5cc627U, 0xbe9f327ebe825a60U, 0x3ee965ffbe60f1aaU,
  0x3cc128163d20e3e8U, 0xbde91ff93d2a0962U, 0xbea4b5b93ec71244U, 0xbdfa3cfabdc1b14dU,
  0x3d77ba6e3ec1b89eU, 0x3f192c0cbee8616aU, 0x3da204e73d48f0c3U, 0xbf1f77e4becc2f8fU,
  0xbd21f6ed3f22a7f2U, 0x3d15552a3d00ead9U, 0x3d160e27be1d0844U, 0xbcfd26013eb42fb2U,
  0x3dc3304fbf342f56U, 0x3efd7a33be158bb0U, 0xbe910ae1be0e0ca3U, 0xbe7f9171befb5fe0U,
  0xbec5cdee3ed8ed4bU, 0xbe20adb13db4496bU, 0xbf317f8b3e642f5aU, 0x3e3bc939bd2703afU,
  0xbe12146abcb3375bU, 0x3eb3ed86be0ef57bU, 0xbd8830663e938011U, 0xbee3abf33dd81a88U,
  0x3dd71cdfbe657050U, 0x3dc272e13f1dd01fU, 0xbf2364633ebea8daU, 0xbedb35dcbf0082cbU,
  0xbd8ae3b73e017cc3U, 0xbe038ab33e035bfbU, 0x3d6354fe3e94abdcU, 0xbea5e5f7bec02aabU,
  0x3d691bc2bf0368ccU, 0xbea7ed503e1f70b9U, 0x3ee8b8e5be811d61U, 0x3e9375dd3f193a80U,
  0x3e8688ca3e628a24U, 0xbe4945f93f355146U, 0x3eb68d963e83ed72U, 0x3e5e06503d1c3d52U,
  0x3ec19e873bec0fd4U, 0xbebce08ebf4ef4f0U, 0x3e094ad3bd8728dcU, 0xbe3138743c56b80cU,
  0x3e85d620be3f45ebU, 0xbed6c806bdc0ca37U, 0x3dca67923e969beaU, 0xbdf3b4d7beabed16U,
  0x3edf0e9f3d971017U, 0xbf0a7b3ebd6fd5b0U, 0x3f28c1773f3e6533U, 0x3e9ffb6b3ea039d0U,
  0xbf7a5b853d882561U, 0xbef647023bf5bf51U, 0xbe8b728abe68433cU, 0x3e0931d73e98b0dcU,
  0x3dbd0d0ebf02ba00U, 0xbf1507fb3efde57eU, 0x3de0d723bdffea1bU, 0xbe83106dbea33161U,
  0x3e8bb0fa3e6cfd2cU, 0x3e1c3ced3efbb203U, 0x3dcb9295be904de3U, 0xbf315bc93d48372fU,
  0x3e95931b3edd5c6aU, 0xbed6242bbe983395U, 0xbe0019a63e681db8U, 0xbeb561953ec71f59U,
  0xbdf8cc80bd0049e5U, 0xbd18b27dbeda0a5cU, 0x3ca204303e38d3a4U, 0x3d195159bec4a72eU,
  0xbf107a34beb8bdd1U, 0x3ec3f9c93cb145ecU, 0xbe50626dbf0fd206U, 0xbf6f0aeb3eb3cbd4U,
  0x3ec1a4c2bf0b693fU, 0x3ed4aaa1be541dfdU, 0xbd6beec5bf02cb74U, 0xbe4d5767bd495399U,
  0x3e8262e83d249daaU, 0xbf067f06bc503ee2U, 0x3eb308023ec1263aU, 0x3e4505e0be87d1f0U,
  0xbe05e3a23f25d08cU, 0x3c2022423e80b9cbU, 0xbe5dcbf73dd02407U, 0xbe90d40e3f29af70U,
  0xbea56f94beee69e0U, 0xbe946611bdd70893U, 0xbd55cb873f004fdaU, 0xbec74c223d1e6bd4U,
  0x3e790613bf3ce216U, 0xbec75f9abdaccac4U, 0x3f0f933bbf2afcdcU, 0x3c5f27ebbec7ed02U,
  0xbea8492d3eb4eff1U, 0xbea6307fbe839bc1U, 0x3e6bc28cbee10bbaU, 0x3e363e53bd314881U,
  0xbec256eabef55a12U, 0x3f3b21253eb697c2U, 0xbeb4e062beb795d5U, 0xbe3d247d3e9ea12cU,
  0xbe92d00f3dd2ec51U, 0xbf649d373e0dbea2U, 0x3e013c6fbe5c4e5eU, 0x3dcaf5e8be711e19U,
  0xbebd7964bec5e083U, 0x3e0ed1c4bf0cfc76U, 0x3ddeb687be6eb0d0U, 0x3f31ade03e687918U,
  0x3e0fcbd93e162312U, 0xbd913fcbbe9ad83eU, 0x3f4871f0b97dcc8cU, 0x3e51f3683d006f45U,
  0x3c8ff4dbbc899e30U, 0x3e26bc523e28002aU, 0xbb8a95ac3e303ac9U, 0xbe976dac3f076cd3U,
  0x3e9115863e89a8c0U, 0xbc062a0abed5cb1aU, 0x3d84e9493dfb8bccU, 0xbea774c4bb321cb4U,
  0xbe003d6bbec0f2b8U, 0xbef786f13ec011b0U, 0xbdcf5d41bee05d9cU, 0xbede101e3ef12501U,
  0xbef713003e47202bU, 0x3e6125633f023c4fU, 0x3f04dc83be08595cU, 0xbe9a9371be793c42U,
  0x3f501c15be12fbb2U, 0x3eb5482cbcb68c11U, 0xbe6d07593e875353U, 0x3e2b11adbe4611b1U,
  0x3d944c803f43adf4U, 0xbe797b31bf28307eU, 0x3e3be0ca3ec95b44U, 0x3c119a1e3e1064cdU,
  0xbd833bccbdc207beU, 0xbe45a51d3e8018bdU, 0xbe8b79e9bea41ab4U, 0xbf0489f5be1ed4efU,
  0x3e76f2d63e28b8fcU, 0x3f267f763e9047dcU, 0xbe134f0f3da231a5U, 0x3e56d4c73e16e5bdU,
  0x3e3c28a7be80dfd0U, 0xbe807b573ebbfe1eU, 0xbe455de8be867807U, 0xbe48aaa63e1554baU,
  0x3e1522e83e86f6f7U, 0x3e19af393e953e0aU, 0xbde7f42b3ea4e70bU, 0xbdcd9926be19a4ebU,
  0xbe20a739bee9cd81U, 0x3c4c9c993f487592U, 0x3e769e09bdc95bc1U, 0xbd22f80a3e29d173U,
  0x3f5a9a2dbeee2e34U, 0x3dbd0993be07e226U, 0x3d7cfdeabdeb6257U, 0x3e356e983f179928U,
  0xbea162e5bf269a2dU, 0x3da66eaebe7429f7U, 0xbedc2a793ecb04f2U, 0xbedb495c3e57545eU,
  0xbeda48643ed155deU, 0xbeccd785bedb1869U, 0xbeb2d0793cee79ddU, 0x3ebd0fb03c5fcb5eU,
  0xbe5758723c38e00fU, 0x3ec3a6da3d07de32U, 0xbeeb9f38bf0073a0U, 0xbdf97396be3dd336U,
  0x3ea8588c3eacb352U, 0xbe8d11edbf2713f8U, 0x3e1ae9a43e2db3baU, 0x3e6d0f733e5d52edU,
  0xbe00f9efbd6f11f5U, 0x3eac142a3f1c2579U, 0xbcd2074dbf13b647U, 0x3ef1a8423c1aea87U,
  0xbe64799cbf0a8de9U, 0xbe0aa17c3e6ee8c8U, 0x3e728624be70c1d6U, 0x3e1683603e1579ecU,
  0x3e7dd9a53c22c3aeU, 0xbea3748d3e40cb7aU, 0x3f5fef33bbae3b8bU, 0xbd38f0a9bda999f0U,
  0xbe088d2e3e564e76U, 0xbe6916403e346deeU, 0x3ec1a03dbedc28b6U, 0x3de845163df741e8U,
  0xbe32a977bf04fbb4U, 0x3e220a7abdac9b67U, 0x3ee3d7253ece4287U, 0x3f03f918bdd0db13U,
  0x3e4ff270bd0f152bU, 0xbf58dce63d3a6c8eU, 0xbe20726abe907566U, 0xbede84b8becdcb7bU,
  0x3f11cb44be7ead7fU, 0xbf40319d3e790689U, 0xbe21ee71bf1f2350U, 0xbe466e38be35c5b1U,
  0x3e88b1f83bad358cU, 0xbd436319bdd0a358U, 0x3efc5e303e51f156U, 0x3e07fc70be8377f3U,
  0xbef23e4abf2c9a26U, 0xbc91ed0ebd160be2U, 0xbd66d08cbe12961cU, 0x3e4b32393eaa1787U,
  0x3f2271793f1887b3U, 0x3e9086babce2836bU, 0xbba1d90f3dd98fc2U, 0xbeabe91fbe8e3f34U,
  0xbdc202a8bedc9b10U, 0x3df83468be2632a2U, 0xbe74f563bcadb9e4U, 0xbcad7a783caba361U,
  0xbd90deef3ea77c41U, 0xbe81806f3e8c4b80U, 0xbe8dd66d3ec24ef3U, 0x3f18a21bbf0cfb77U,
  0xbebc7334be5447d9U, 0xbeb7867f3eae8c99U, 0xbd05271cbe008168U, 0x3e311232be689f30U,
  0xbc0d6232be3ecf00U, 0xbda151d23de16163U, 0xbd4d8e553f45de02U, 0xbdec44b33ee44e26U,
  0x3e1d3167bedd9c08U, 0xbf16f52cbe87a255U, 0x3ef08cfc3e61bd3dU, 0xbf5a2858bd1ceee9U,
  0x3e57775bbca791a9U, 0x3f10ef603dae116fU, 0x3dfb8ac53de4555cU, 0xbed6f723beebac8fU,
  0xbefeb6af3e9bad72U, 0xbe9cb3f63e5bd268U, 0xbcafc73fbea2b836U, 0xbe8732f33f12788dU,
  0xbd2591c6bebf55e1U, 0x3e8e80a83ec36accU, 0x3e6d0d3b3d3c874aU, 0xbec6e2d03e517d29U,
  0x3f1b5ec23e82b175U, 0x3e915002bdaf2d31U, 0x3f2e3888bdee192bU, 0x3e8e1dd53ec4374dU,
  0x3eb90bc6be8ee955U, 0xbe99ad92bf055731U, 0xbefd45b6bf4ce8f3U, 0x3d83accdbe068c41U,
  0x3f01d0e43ea884c5U, 0x3db31ee63ca73d2bU, 0x3e611f8a3efc2567U, 0xbe96e2abbed8c35eU,
  0xbe86e59abedfb9beU, 0xbe92df95be84489cU, 0x3e5cc329bee52f47U, 0xbee773cebf14d9dcU,
  0xbec8d04cbf16d550U, 0xbe99c8943e826653U, 0xbdae582fbebc5596U, 0x3eda8fa2be0653a5U,
  0xbe332c1ebde5103aU, 0x3dac52fa3ed28cc8U, 0xbe11b63dbd73553cU, 0x3eb7335cbe0b32c1U,
  0xbe286ebfbd0f29ddU, 0x3e9986f4bec4785cU, 0xbe2536d63ea256cdU, 0x3e03f9cdbf17516eU,
  0x3f1262f53f2c6e3cU, 0xbe88979b3d867cf1U, 0xbe350776bada1da1U, 0xbd46fddebdbf0567U,
  0xbe0ef10fbd481d72U, 0x3e858322beaa36b9U, 0xbebafe88bed46d26U, 0x3dd916b9be01a77fU,
  0xbd3e3f6d3e001f1cU, 0xbe7e0b60bf2dc25fU, 0x3e1fec7bbe83ba6aU, 0x3e55cbc73db7a5d1U,
  0xbe967251bd481cc3U, 0xbe5686b33e0c7334U, 0xbe2c55a8bebafe41U, 0xbe49c140bca53dc8U,
  0xbe65b0f33e5c357fU, 0xbea6e2c83dac4001U, 0xbe23d130bebf16cdU, 0x3e251806bed4b96aU,
  0xbe72ced2bd89b8faU, 0xbec52eb0be812cfdU, 0xbd12caf2be34fc2eU, 0x3e83d9403d6c4f86U,
  0xbe0f5d3bbf459f85U, 0xbf50b29fbf5cea57U, 0x3e626f8bbe587823U, 0xbf678a6abedbc39eU,
  0x3e9b3adcbdf20a2dU, 0xbef02deabec6b29cU, 0x3d111c593e9302b0U, 0xbec24d263e4f8290U,
  0xbf2b33af3ddc2feaU, 0xbe9a55dabd8f21fbU, 0xbf1b5139beaf6d2dU, 0xbe9cdc933ee9d322U,
  0x3eab6cb0bf0d27a2U, 0xbe32f025bddc6ca8U, 0x3f133a48bc2cd4cfU, 0x3eb6766fbdee2e10U,
  0xbd6086debef797f6U, 0x3e236c2f3e2a00a4U, 0xbe783b2f3da2c759U, 0x3ddd57773e2a562aU,
  0x3d901383be5d13d2U, 0xbf2f79f0bef4b755U, 0xbeb552d6bdfd42eeU, 0x3e12011fbebf2b83U,
  0x3e9f1c3d3dd83decU, 0xbe3542fdbb048ef1U, 0xbed0b4e3bf2d698bU, 0x3d85b9633f110758U,
  0x3ef510acbe41a69eU, 0xbf0092f43d660afeU, 0xbdba57a7bf1492dcU, 0xbf0c04f73d7a0f25U,
  0x3bf97cf5ba80d9fdU, 0xbf38fb49be2febcaU, 0xbd433ee9be24e186U, 0xbec1003dbeaa488fU,
  0xbf07a54bbef042caU, 0xbe0b8c863ebb5567U, 0xbe244a423d760f7cU, 0xbe78a5863eadc178U,
  0xbe4614d3bee71399U, 0x3dd1e99fbe8607e3U, 0x3f268043bf739023U, 0xbef2163b3c5cfaa3U,
  0xbd8bcfc9be3007c0U, 0xbed9e9cbbca0ea5cU, 0x3d1eb984be72692fU, 0x3e935f393ea9730fU,
  0x3ee4adf03eabaf9dU, 0x3e0131d33ec0e708U, 0xbe85df6b3e49ee7bU, 0xbf244956be72ad13U,
  0x3ee4963d3e853fb2U, 0xbd035cf33e366406U, 0xbeb49a383e415be6U, 0xbecdffb4bee87a8fU,
  0xbe6a0629bc477d98U, 0xbf3a20893eda2b40U, 0xbe9208913e70852bU, 0x3eecdea83d3eecb1U,
  0xbe400a02be9232efU, 0x3e78a3dcbf5ea08aU, 0xbd9c481cbe26b289U, 0xbe7611d9bec94428U,
  0xbe2879aa3e23dfe7U, 0x3d4ab79b3dcfcd73U, 0x3ea80574bf028b8cU, 0xbe42a1523ec03c8aU,
  0xbf00ef1ebe934c93U, 0x3eadb3933eae9b76U, 0xbe1b3beebdbb1dd4U, 0x3f28e3aabeb04084U,
  0x3e7a9eec3f10ca4bU, 0x3e92ac853dc2627eU, 0xbe16ccddbe8436f2U, 0xbd8da2e93f2f0cbbU,
  0x3e2aa3f9be02cecbU, 0x3e528d25bf67ef9aU, 0x3bd6d08ebe7d16afU, 0xbe00de483dce5d7eU,
  0xbf0d23fb3ea19fc9U, 0x3eb31f2f3e1ad448U, 0x3e28b603be5a64f5U, 0x3efd6bb73d9815caU,
  0x3f067c42be799eddU, 0x3bc229d03f03d08aU, 0xbed54f4e3f082127U, 0x3c4ce0d73e1e0f13U,
  0x3e8ace7e3ecefbbbU, 0x3bee7904be426fa0U, 0xbe448edfbe6343c4U, 0xbeb8b44abc4cdf38U,
  0x3f0e7644be6d4621U, 0xbe54987f3f199b08U, 0x3e99a894bedb3781U, 0x3dab76ed3e4237f7U,
  0x3f0449b5bf10f4f5U, 0x3e64060abf508d0eU, 0xbe872da0bcd8b392U, 0x3e48c19abc5f3412U,
  0x3da5250d3f0977d9U, 0x3e0817563c2d7421U, 0x3ca57a91be0cbba6U, 0xbd80a9dfbe93d598U,
  0x3ec3db4abec06693U, 0x3f8201783e2cf55bU, 0xbebae1503ecbfd58U, 0xbf1a7dca3dae4464U,
  0xbe231c683deac7fbU, 0xbe717712bed39bf1U, 0x3d8614df3eb4f2baU, 0x3f0a5081bf112118U,
  0x3c9f74cf3e9edcbeU, 0xbecf65ad3eb407ceU, 0x3ea2d13d3e0ca0c2U, 0xbee2d3cebe7818b8U,
  0x3df0586dbe3e97d7U, 0x3e36245f3f30a681U, 0xbe96b82f3d8107f0U, 0xbe20f36e3e39faadU,
  0xbe796d19bdbe83e7U, 0xbe641d2c3e044d46U, 0x3dbf3f8a3f13b60cU, 0xbed9fa333e4499ccU,
  0xbd03106bbe181359U, 0xbe414142bf31fae1U, 0x3e9660343ec41db4U, 0x3f0cfa8ebcff0035U,
  0xbd8d00bc3e607b5fU, 0x3ed3720b3e9b4d5bU, 0x3ea92595bee3d295U, 0xbe706aaebe2b6f05U,
  0x3ef136263c825582U, 0xbf09221abe2bae4eU, 0xbc86e905bd75b8e2U, 0x3bfb6d65be106f65U,
  0xbe6ff9363e55921cU, 0xbef2c32d3ee5396aU, 0xbd1acdecbeea6716U, 0xbd3cb16bbedfb19cU,
  0xbe5cb5bebe4b0e7dU, 0xbb2702403e62f48dU, 0xbe49b1413eba9593U, 0x3da8bb02bd981e43U,
  0x3de20976be0e0850U, 0xbe48c2ffbdd5243fU, 0x3f6aa7f83e544135U, 0xbdae8902be80dd98U,
  0x3cf088fc3f736060U, 0xbc0acb46be0dcf44U, 0xbebb460cbd9b043aU, 0x3e1f7c2bbe823471U,
  0xbef87b76bd8f2ab7U, 0xbe3f33523e587015U, 0xbef919d8bd2bab60U, 0xbd09eb67bd312889U,
  0x3e097b3a3e8c0906U, 0x3f1ba3593ee0951bU, 0xbe47fb89bd28ba58U, 0x3e5e13f8bd6a2268U,
  0xbe5bed573d39dbd4U, 0x3d980ec8bf10b6e4U, 0xbf0bf7a7bdc92a3bU, 0x3bb9334dbe9c518aU,
  0xbe965f10bf1cb973U, 0xbedd19c73e15f6ceU, 0xbf27dcdabf2065b0U, 0xbece8fc7bd571ef4U,
  0xbd98c16fbe037c2cU, 0x3cb3375c3f3119b0U, 0x3da22412be84e37aU, 0x3d15ca853f1211adU,
  0x3e2cade4be596f88U, 0xbe1b7ccbbe935cc8U, 0x3e62fb59be0b3c4eU, 0x3d8a3c9abe6bd3f4U,
  0x3efb6acfbe2146c2U, 0xbeb52a2f3e042964U, 0xbccd15e73e7111c8U, 0x3e44bf40be6db5d1U,
  0x3f259cbb3e942ea2U, 0xbed1447cbe2465ecU, 0xbe17379bbd215e9eU, 0xbd30cbe7bf3a8159U,
  0xbefe4ddabdde0ba0U, 0xba4b756a3f0a8474U, 0x3ed170f43e85c208U, 0x3e0eebf03e037a5bU,
  0xbf4c2573bf0cc7bcU, 0x3f17a0c43dae075eU, 0x3d793d553f0e3888U, 0x3e244fab3e966a01U,
  0xbe97f4583e9ab1b3U, 0x3e3e1eb53e10ba1aU, 0x3eb23ce4be08191aU, 0xbe3617bfbe213bb9U,
  0xbdc9db733e973775U, 0x3eb865c9be816756U, 0x3e867660beb9a75bU, 0x3d729c363e5ba488U,
  0x3e3527a7bdf7d7e0U, 0x3e8dd74b3e6079aeU, 0xbd8c861cbec739f7U, 0xbf237bc4be108e97U,
  0x3e3bf7aabe799f17U, 0x3e870295bf4196a4U, 0x3ec00b113e62604eU, 0xbf5300b03e835720U,
  0x3e3a706bbe24ff3bU, 0xbd9229c63eb621aeU, 0xbe724565bc8e9422U, 0xbdce98febe16b103U,
  0x3cfc6a8ebd4a6c4cU, 0x3f2d19efbd7370b5U, 0xbee2e1953d92bf0aU, 0xbede0353bea0279bU,
  0xbe26258f3eb24ba4U, 0xbbcb756a3dc102ffU, 0xbf197a5ebe219c98U, 0xbe21709bbcdcb388U,
  0x3dfba0c8bea6125fU, 0x3e886866beb0799cU, 0xbef6a27fbcf625a3U, 0x3f10665d3cf00a33U,
  0x3f0dffa0bd8073d7U, 0x3f255ef0bf084adbU, 0x3e24f24ebf304f2bU, 0x3e1b60ee3e883988U,
  0xbe1046263e54cd5bU, 0xbe14c466bc847cb2U, 0xbe3410983ebade8fU, 0x3f1fc9eabf1522b7U,
  0xbd5fc508beb19942U, 0x3eb065f1be8763a6U, 0xbdefaa7d3d58e233U, 0xbed3fff53f012ef1U,
  0xbe0dc0aa3e5a59c9U, 0x3de9e2c0bde9d9feU, 0xbea24d5b3dd19520U, 0x3e8671103dd5285eU,
  0x3deb0959be7f04d6U, 0xbdd55b07bd54537dU, 0x3e04f2d33edae7ccU, 0xbf493d3abe5595c5U,
  0x3dea0d873ef26b2fU, 0xbf0430903eaccf6fU, 0xbea811d2beb45e49U, 0xbd9fa985be9c06bfU,
  0xbf5b73813ef9cc57U, 0x3e170d733f2cf003U, 0xbd195f0b3ed980a5U, 0x3f4c4ebfbdbe19b3U,
  0xbe9185a8bda99247U, 0x3d6053c2bf58b949U, 0x3ec51f83be42d435U, 0xbe1789ea3da9ab9cU,
  0xbebea4c9bec9ef2eU, 0x3f080b2f3d8bf99fU, 0xbe3dd8e5bf23129fU, 0xbeff71c1bdfc8be8U,
  0xbdc0f865be4f32b8U, 0x3d11f6f43eae3400U, 0xbd6e6823be4e115aU, 0x3e3eb2f73e475cd6U,
  0xbeed589d3e8e6f1fU, 0x3f3bc934be44f24cU, 0xbcfa38cb3ec55600U, 0x3e10e6e63ec68206U,
  0x3f20ba733f069cfbU, 0x3c9028143ec89928U, 0x3dd18cac3e9fcd2aU, 0xbef0e5bdbe1268b6U,
  0xbc8b697f3e71581eU, 0x3e80c9cabf2af7d2U, 0xbee4ae9cbf73b809U, 0xbcea8b44bbcb2ac4U,
  0x3e9853bfbf56633cU, 0x3ee69696bd378eb9U, 0x3e9da648bde0569fU, 0xbebf9e753e7ad07dU,
  0x3d1e5023bf29d5e3U, 0x3ce64497bf340bd4U, 0x3eda7833be8d6f9fU, 0xbf7bad95be9d58baU,
  0xbf57edc0bd5b3625U, 0xbe419050bebf2e5fU, 0xbea6b99f3e908ea8U, 0x3eff6344bef747d9U,
  0x3d94b42fbf53b779U, 0x3e26a11f3efc6311U, 0xbeb00f27be09e1d0U, 0xbea70e573cabf0ccU,
  0xbeaf78373f7b5b3bU, 0x3ca21016beb66646U, 0x3e05076cbea116cbU, 0xbdb7f364be4a8395U,
  0x3e4d53ba3e7e69f8U, 0x3e82dcf8bcc2c97bU, 0xbe4dee473e5e4034U, 0xbf1a5a29be0c66dbU,
  0x3f2115973d068f13U, 0x3ed64b29bebb9885U, 0x3f849320be97d398U, 0xbf1e7753bdb0b624U,
  0xbb85f53a3ef621d1U, 0x3c3a13c83e324ac2U, 0xbe9d25873c9355efU, 0xbf56862abe3b5c0aU,
  0x3f459fb73eb1544dU, 0xbc393e52be055f03U, 0xbdd335883ed6ae37U, 0x3e558e48bd2b6d5cU,
  0x3e7e79c6bf28f4f2U, 0x3f1189833e116333U, 0x3d0f9c25bf208eceU, 0xbdc4b7243ed74e16U,
  0x3f3c54c2bef3f1cbU, 0xbe28c4823f5fbb69U, 0xbe9b39cabe68bf6eU, 0x3e95f47c3d9c31f2U,
  0x3ed65bfbbe893f4cU, 0x3e9c1c7dbe461c0cU, 0x3bb33ca6bdc21467U, 0xbd9fa82ebe047fa5U,
  0x3d008211bea8201bU, 0xbf3a018abe4f1be0U, 0x3ded34d0be48f159U, 0x3efc7731bed08d50U,
  0x3f393b8cbeb8afe5U, 0x3e8c867cbdba950cU, 0xbeabf7fb3f0a7e49U, 0xbf0ff7f83ea864feU,
  0x3dfe8ffc3e6d669bU, 0xbeba59773f479a1bU, 0x3de6b314be71a5cfU, 0x3eccd033be4d8a61U,
  0x3da2145bbde94103U, 0xbed43042bb0b6961U, 0xbdff7f3f3e200005U, 0xbe1712fd3eddc9aaU,
  0x3dccbb213e5c6f18U, 0x3e53a5223f1b0505U, 0x3eb4ba4dbe4735efU, 0xbe0234613d2fc4a2U,
  0xbdf743d03eb5cde8U, 0xbf48a4be3ebb4058U, 0x3e326bd0bf0965bfU, 0x3edaf7fc3e9f42a2U,
  0x3db0c031bdc9d7caU, 0x3ed89e63befec6e9U, 0xbd10047fbdefd3b9U, 0xbf2b6656bf061146U,
  0xbe88d055be743e53U, 0xbe420fd43e56335dU, 0x3dc036673dcb9782U, 0x3dfb20c13efc0916U,
  0xbe82e812bdfc9a09U, 0x3f3f038bbdf89812U, 0x3cecfd56bdda8013U, 0xbd96b23cbe4591d6U,
  0xbd32c9f93e0ecf77U, 0xbedd576d3f0a4d25U, 0x3cde54c3bf29c703U, 0x3e99bb6c3d95a249U,
  0x3ec28683bf3abbb8U, 0x3f01ea4cbf0d5863U, 0x3e2180803e30c844U, 0xbed41dc23e3efdd8U,
  0xbda4efed3e1ce4c0U, 0xbe8c2a40beaa767eU, 0x3f1264873e118b95U, 0x3d3e159b3e3d8decU,
  0x3e9bc8fd3e2c1e79U, 0x3d875ade3c65d413U, 0x3f0c181abdbb1f27U, 0x3e03f6153e3b63daU,
  0xbd6cadae3eed6fccU, 0x3e12b534bee9f644U, 0xbe753edf3e7abd6eU, 0x3ef908cd3e1dfb2eU,
  0x3f3cecdb3db6aac3U, 0x3f44414b3d2d5519U, 0x3e8cd9363dcca668U, 0xbf1bcf3ebf5b8e4eU,
  0x3e3b6281bf2b55e1U, 0x3e6c3729bda8d805U, 0x3efc6a9abee45556U, 0x3d8cdce6bdaa0654U,
  0xbf3e31cebe945e8bU, 0xbeec37613f029da0U, 0xbe99ee35bca8c338U, 0xbe76210a3dd39896U,
  0x3ec19a36be0043c6U, 0x3dd9ed8e3e9cb10cU, 0x3de4ff893ed162a5U, 0xbe8a0f6cbd08aecbU,
  0xbee95029be273e43U, 0x3e9c9379bd1a0cf1U, 0x3eb89689be17ae08U, 0xbd1614043e502f6aU,
  0x3ef84e463e77e555U, 0xbe964a1c3d375c0eU, 0x3deaf19c3e9730ecU, 0xbf19e232be55cc26U,
  0xbf1e3b483d1b4804U, 0x3cc2ef22bdaaa63aU, 0x3e6708e93c26ae3bU, 0x3f46a206beaa1cb2U,
  0xbf18a86f3aefafcdU, 0xbdbfff9ebdaeaacfU, 0xbea47595bf29df05U, 0x3ea993bd3ceebd17U,
  0x3f5d3556bee103b2U, 0xbde9bd61bd4a7157U, 0xbecd2142bda9b5adU, 0x3dacaaf33eac5041U,
  0xba3bbd4dbeeb3959U, 0xbd8baa183e0f1d84U, 0xbd9c39e9bef5e380U, 0xbf4fc7debe87b772U,
  0x3e04baaebe1a1a45U, 0xbd6eadcbbba603baU, 0x3e39eff2bf291107U, 0xbe1d290ebeef3e90U,
  0x3e8db320be0cc5adU, 0x3f13e9923e9a24e0U, 0x3e998c74be15c62aU, 0xbe712658bd779e5aU,
  0x3e447bd0be2a5da5U, 0x3ed558c33ef30c30U, 0xbea4cb8e3e28fd8cU, 0xbe0d8f8f3ca84548U,
  0xbf6a16773ea9ff71U, 0xbe9518653e649ddaU, 0x3e9cd3423e58c724U, 0xbf2fe120be7c8c3fU,
  0x3e92c8193e6d13b3U, 0x3ede06fcbdcbf1abU, 0xbe92029bbf11b639U, 0xbec68fc3bda770d5U,
  0x3e62193cbd001dbfU, 0xbe816fbebd25aec6U, 0x3d7fb49dbdde3e8dU, 0xbeb10881bdbd7814U,
  0x3f471d913d7517e4U, 0x3f0f5ec93f1d7e13U, 0xbd842fb2beb1fb04U, 0x3f189c64be3eef80U,
  0xbdd4f2303bf333feU, 0x3e3c0199be310325U, 0xbf5d1b11bd9caaf1U, 0x3e12b3edbcb4fbf3U,
  0xbd7b93103ea531d8U, 0x3dfa2ee03e3ff934U, 0xbe991ae03efcb53dU, 0xbcf517c23e05e371U,
  0xbec635b8bdbc6d4cU, 0x3efb2c583e9a0ce8U, 0xbe468acabd81a45aU, 0xbdc7a7013ee5ea3bU,
  0xbf788b0ebe3cfaffU, 0xbf19bfa53ca945b4U, 0x3b5191bb3e4889c8U, 0xbd53aab03d1ae125U,
  0xbd8d3023bebdff0aU, 0xbf14c49cbec49ca8U, 0xbd4169ec3e586a5aU, 0xbf339b5ebeb0434dU,
  0x3e69f45dbeac8639U, 0x3ee7032c3f7236c5U, 0xbdbeaf7fbea82c7fU, 0x3e7b541b3e90513bU,
  0x3e1adfa3bf2f979aU, 0xbe0450983d6c051dU, 0x3e0acefe3d8dd86eU, 0x3d647df63e6095f1U,
  0xbe9ff48fbeca97d4U, 0x3e64c5d93c45ab3cU, 0x3e8cb47b3e61af09U, 0x3eb906fabec8a1b8U,
  0x3e8338e83dbccd4dU, 0x3ed9504cbd00f2d6U, 0x3e8539debeba66f8U, 0x3f0272b2beba8b32U,
  0xbeed9e39bec96d8aU, 0xbf096bfa3da563f8U, 0xbf198701be8bc81fU, 0x3dbbea0f3e937064U,
  0xbf423733be2ea152U, 0x3e9693b1bdb93a46U, 0xbde1b7f6be1d17b0U, 0xbe3c369bbf009a30U,
  0x3e8f6a573bed9d51U, 0x3f03c41dbd4aec20U, 0x3ebad48c3ee101f4U, 0xbe15e2193f32edf9U,
  0x3e225971beeb0dcfU, 0xbdfb625fbd6ed04aU, 0x3ea0f24fbe299819U, 0xbe20b44abecd6449U,
  0xbf44cbd53d2c9127U, 0xbe913f1abd91368cU, 0x3dbf41203ee9a8bcU, 0x3f29eb943e0ed0cdU,
  0xbeabbdb5bef8f6adU, 0xbde0a09ebdfecac8U, 0xbe63f6443eddf03dU, 0x3e10d0d6bfa69e1aU,
  0x3e560305bda7e36cU, 0xba976b3abe0e8f92U, 0x3e875a5abeccf2e9U, 0x3e479ba0bd831409U,
  0xbec7ecebbf52f6bdU, 0x3e902ba4bd9a40e4U, 0xbd83b7853e542f51U, 0xbf02a1323e02204fU,
  0x3d92a24bbe385aeeU, 0xbe5c04adbd0c03afU, 0xbd00e47a3dcb3f25U, 0x3e8e6862bef3dbf2U,
  0x3e2d9f8c3f0116b2U, 0xbe0b62ee3c40ff59U, 0x3f0ea9993e115c80U, 0xbd324c51be65ddd6U,
  0xbe8e4c98be443fe5U, 0x3d2654fcbed633c4U, 0xbda9712d3f0df176U, 0xbcf80d173ef53149U,
  0x3ede6702beac5d34U, 0x3e9938b63f1810b4U, 0x3f5039813ba9ae47U, 0xbe9f257bbd9460efU,
  0x3e963e8cbc807cebU, 0x3e8c952abecc6323U, 0xbe6dc0fcbdf30eabU, 0x3ec2c857be7191a2U,
  0x3d69dca83da05f67U, 0xbe3dd864bea505dcU, 0xbe0d5ff2be8f7566U, 0xbecf65073dce4c54U,
  0x3dc8ef85be5f2343U, 0x3dfa8bdf3def2d1cU, 0xbdc53b64bebe9ee8U, 0xbee9eeb2be2d99a6U,
  0xbe40f58fbe5f7879U, 0xbe86846ebe850613U, 0xbe2ba8bd3ec7aaf4U, 0x3e107071bed7faa3U,
  0xbd98d25fbe10b5cfU, 0xbd591eca3f2f03d1U, 0xbe49a7fbbe360576U, 0x3d79406dbe64d044U,
  0x3e3ff2303ef987b7U, 0xbe21af7ebbbecb1eU, 0xbe857deb3dd22198U, 0x3e4e8e753e2038faU,
  0xbf0128b5bc2abdbbU, 0xbf023ea13da9b606U, 0xbe125ac43e258cceU, 0x3d213fb93daeff42U,
  0xbed3da5abe90ceefU, 0xbea233f13df735d8U, 0x3e30ed813f28afcdU, 0x3c73d65dbe048b4fU,
  0xbe49679e3ed4b412U, 0x3d8860cf3ea0bc45U, 0xbdb6c2a0bea7629eU, 0x3e10f697be6cfe49U,
  0x3a8b26d2be9ae008U, 0x3d98f3d23ec116a3U, 0xbe82d6c03e3a5111U, 0x3f2c56333ecd0b87U,
  0x3e840074be6cb6faU, 0xbe4684773d4c2dddU, 0xbbdfed85be7a8bd0U, 0xbf2a363a3e0089a7U,
  0x3e928c7cbefaa1b5U, 0xbdf471de3bbc8495U, 0x3ebb1d8b3e08c8f5U, 0x3f2a8fa7be1328cdU,
  0xbedb3ffa3e720272U, 0x3ea9e6a53f1c18edU, 0xbf1434c8bced8c0aU, 0xbe8cd1a83c8b6a7dU,
  0x3c313b8c3dd3e998U, 0x3f5f552d3deda337U, 0x3d5853513eaa9243U, 0x3e794ce43daa4f7fU,
  0x3de07dd4bedf4a1bU, 0xbe049abe3d21bfc1U, 0xbe72d2983da3e388U, 0x3e9cac7ebe809d04U,
  0xbec2f03ebb9c0b31U, 0xbf22f5df3e6ee4dcU, 0xbea6471e3aaf5508U, 0xbf375593bd15b8b0U,
  0x3e0b3d21be39910cU, 0xbe61273e3eb4fc4eU, 0xbf1bb58cbe24b4f2U, 0x3e6687a53df87788U,
  0x3e02cfacbec57cb5U, 0xbe4110a53e7737b7U, 0x3e9b3359bdd43574U, 0x3e0d60f9bd4a74f7U,
  0x3e2416533cb3c445U, 0xbec93d69bf043550U, 0x3ea197b73e02aedeU, 0x3d976159be90b7f2U,
  0x3f234d853ec7c219U, 0x3e62cdb53ed8541dU, 0x3eca922f3df05aa2U, 0xbe0a23a0be3db8a4U,
  0xbe63becbbde0cb0dU, 0xbd8f58a03e0c955dU, 0x3edcf002be402c19U, 0xbdb376323e9c90d5U,
  0xbe5e3a403ee7c0ccU, 0x3ea660bf3e905f81U, 0xbf284f0b3e393ac1U, 0x3f038489be31fcacU,
  0x3f04a2b5bf72320fU, 0x3f2573ba3e48a58cU, 0x3de9bc803ea021c9U, 0x3e3cc86cbe048cf4U,
  0xbe650d963d7b9fa0U, 0x3e548715bce08c59U, 0x3e354310bec39bd4U, 0xbe32e3513e423a14U,
  0x3eca5b8a3ea04308U, 0xbee09a7ebd93c1f0U, 0xbf2caf553deead8eU, 0x3e8a39ef3c60e901U,
  0xbd837616bf1abd1aU, 0xbb6bd9a33f13b0daU, 0xbbab00cd3eb1d9aeU, 0xbdfd712cbecdd84bU,
  0xbd0cb79a3dabcf46U, 0x3d65a73a3d2b2093U, 0xbee2afbdbf0d8f87U, 0xbd5c83c63e8bc9fdU,
  0xbebec781be4321fdU, 0x3d1cd7b2be594c76U, 0x3d092a73bdad09abU, 0xbb92003ebf3df06aU,
  0x3d065f91bf8857f5U, 0xbe9d9bf9bee71e0bU, 0x3e805da8be79746fU, 0xbee0c0d73ccc53d1U,
  0x3f1afe3e3e56b3ebU, 0xbeb211bdbc87dc73U, 0x3e3eaedf3efeb3f7U, 0xbed6d5de3e25f7dbU,
  0xbbf1ad5dbe846e4bU, 0x3dc5d76ebd99e8aaU, 0x3eec5e143f71b662U, 0x3deb25af3f30060bU,
  0xbf8bc970bd88d3fcU, 0xbe964d8fbf19b969U, 0xbe4d31d1be15f47cU, 0x3ebba912bc7c8b75U,
  0xbe6134f03e5e1f98U, 0x3f19215a3e93742aU, 0x3e6dbe9abe5d3055U, 0xbed0d14b3e3a0a85U,
  0x3e0838f8be6daf82U, 0x3e84adb6bef0784eU, 0xbee8bcf5bea28fc3U, 0xbeaf5dd5be0199e3U,
  0xbdd5569c3db0ba68U, 0x3e5e49993f062faaU, 0xbcb7935e3e0e883bU, 0x3d1d757abed54af0U,
  0x3a32640ebec63c8dU, 0xbe8d703cbeee90e9U, 0x3ea537e7bcd24792U, 0x3e1ea5ecbe45abb8U,
  0xbf314bfa3eb539d3U, 0xbd9f20f53de9d08dU, 0xbdc6c3e53ceb27e2U, 0x3e47afd73d92ff5eU,
  0xbe4fe7023e9af1f3U, 0x3f0ae2cdbf425d75U, 0x3d1fa5febf136deeU, 0xbe59d31e3d33be64U,
  0x3ec5202fbdf8eb35U, 0x3dca8cb1bdde28d5U, 0x3c71fc52be5e33c2U, 0xbd912720bea0bd34U,
  0x3b0bc6a73eaa4951U, 0xbe1254793e56b726U, 0xbd8df1453e856914U, 0xbdc547923ed2c315U,
  0x3e2f74803de86e7dU, 0xbe8d5d583e02de81U, 0x3e57adfcbd923460U, 0x3e91fce9beccacd4U,
  0xbf126a853d861c44U, 0x3f5b6d233e64a461U, 0x3cdaac91bdacb6bfU, 0xbd95792f3ea3823fU,
  0xbd93a787bef16b54U, 0xbf34e815bd6ebebdU, 0x3f21696cbe81344bU, 0xbee4ac883ec01b14U,
  0xbef6bef0bec9150bU, 0x3eba08ec3ec55436U, 0xbe2bf475befb266aU, 0xbedcafa63d9f08cdU,
  0x3e0959623e8be2caU, 0xbeef674abd723c6eU, 0x3ea88051be50aedbU, 0x3ec99625bec49bbaU,
  0x3d1c9debbe69d602U, 0xbeec279a3e6d0c54U, 0x3e22ba643dd128fcU, 0x3dd7824b3e2ea711U,
  0x3c0b2133bdb8ea1eU, 0xbc34063f3e1960f9U, 0x3c9cfc7c3e76d0afU, 0x3ede9d953e9b3e24U,
  0x3db9ba3c3d9052c2U, 0xbef3a117be934e89U, 0x3e1be6cf3e70f234U, 0xbe829d303e90f015U,
  0xbf773a96beebf419U, 0x3d1631cbbe6481c2U, 0x3eb1c4fabe2d3f5cU, 0x3eaa4b9e3cf1f9abU,
  0x3dfb715a3e617bd1U, 0x3c44c0bcbe549183U, 0xbdfebb8abed1628dU, 0x3eccb1e13e71cd39U,
  0x3ef1ccabbb3a2f37U, 0x3e8095df3e74de5dU, 0x3ec8c84bbb8abc45U, 0xbe9554613e27f48aU,
  0x3cc3360fbf0d0e79U, 0x3ebb19f9be84df79U, 0x3f111108be8bd673U, 0xbf162f07bf18b0b9U,
  0xbed5c1273ce7a737U, 0xbd869f32bf154646U, 0xbd9e341ebe0d7e81U, 0xbe77583cbf473e0fU,
  0x3da28bb0be7239beU, 0x3e94aa60bf2ad599U, 0xbd0213f6beb562d6U, 0xbe360b0cbe8844f8U,
  0x3ef99321bda7ab3fU, 0xbe900ae1bc915c71U, 0x3ec37f7dbebfeae8U, 0xbe796ff43f1e3b91U,
  0xbed7cdacbf192b04U, 0xbddff2b93c85bf6bU, 0x3de24eb43c24388fU, 0xbef38eb2bf23a441U,
  0xbe8769e6bf1b9889U, 0x3d7a5ecf3d82f54dU, 0xbea9b64d3e4d7024U, 0x3da0ddb2beccbbd9U,
  0xbe5248cdbcd19609U, 0xbdc4edb63e341937U, 0xbf19ea41be8caab4U, 0xbe8eb7023ee8abe5U,
  0xbcab092cbe22f323U, 0xbe9b3afc3d995cd9U, 0xbea8855ebf4fb983U, 0x3daadf653eb14b54U,
  0x3eb7b873bf11ae1fU, 0xbf2992d23f191220U, 0x3f1d82d63eabaeebU, 0xbe262fa2be374811U,
  0x3cc93bb93e4767faU, 0xbe742492be00ef0fU, 0xbc9ecf743d1106bfU, 0xbdaaee96bf0b62b4U,
  0x3e8601bebeeec027U, 0x3cbaa1723d7bdf38U, 0xbea3938ebe58e78cU, 0xbf3747953e275accU,
  0xbe369e35bf2b3c38U, 0xbeb4afd03db4940dU, 0xbd34ca933d398037U, 0xbee6e1ea3daa3bb7U,
  0x3d2345f8bef55187U, 0xbf04f80fbefcb952U, 0xbe1542ecbda7cde3U, 0x3dbaabb2bf049e6aU,
  0xbd34a5883ddaed50U, 0x3d8e1cf53e5082bdU, 0xbe7788bc3f08df60U, 0x3e6d53f0be939b11U,
  0x3ea5cdc7bf52102dU, 0x3e26923dbf4d8220U, 0xbee180393dcfd36bU, 0xbdc1c41b3da08c6eU,
  0xbef4df773e80803eU, 0x3e019fc2bf2da8c6U, 0xbed12edd3e789e66U, 0xbec6984dbf238d21U,
  0x3f1134963ebe8e95U, 0xbec6e2833e8d9ae2U, 0xbdb981a53e736128U, 0xbd4258b03d12d20dU,
  0xbf4b27d73cd4b3d2U, 0xbf0513463ea55090U, 0xbf36b2bbbe1ff282U, 0xbe89782ebe88169bU,
  0xbeea11333dfa3e68U, 0xbebc2d0fbf116ca8U, 0xbeb5287abf565f8cU, 0x3c0e4f443db0d82aU,
  0x3f011bbbbf0c2e45U, 0x3e7e46253d19c304U, 0x3f24f020be79d992U, 0xbe802cef3f1c2eb3U,
  0xbd755fd03e9095e3U, 0xbe1b67b6bf0cbd57U, 0x3e4da0e63d392f1cU, 0xbe0076993f6f7751U,
  0x3e2638af3e045055U, 0xbed0be743d1dad20U, 0x3f13aad53e5f3afaU, 0x3eda1389bdfe2c07U,
  0xbe42c066bea135a0U, 0x3f019faa3e8dfa39U, 0xbe52c1bcbe859054U, 0x3e3d8c3cbd1f63c6U,
  0x3e06bb8cbe105fabU, 0xbf06d7bc3eb62886U, 0x3efda365bebb5e5cU, 0x3ee415f43ca8c72cU,
  0xbeb7ca6fbf3aa437U, 0x3e0b866bbf3cc0e8U, 0xbdefdeb03e50b1b0U, 0xbe9d2add3de2da90U,
  0x3e8d7f9b3e2b6ff1U, 0xbe2a5593be3e4c6eU, 0xbe2257c4bf132d8dU, 0x3e584570beec93ceU,
  0x3e4f3bd9be7a3e8cU, 0xbe80b3babeb5e0eaU, 0xbd9e8ac3bc2f1d82U, 0x3dd086b93e3f11a8U,
  0xbe6468f8bf025cc9U, 0x3d69289fbeef6885U, 0x3f177d5cbe7ecb74U, 0xbf153397be85995fU,
  0x3f15d27abe102606U, 0xbed431523e06af65U, 0x3e572d673e3be493U, 0x3e5d5c3b3e377e32U,
  0x3db712e63e87c457U, 0x3ea800463e65c9eeU, 0x3e8ef25fbba56e9eU, 0xbe729ae2bee0d899U,
  0x3dc2028dbf2738fdU, 0x3e5ffb623eec9565U, 0xbe2760b0be61016bU, 0xbe9fd9163eb4f524U,
  0x3f128893bdf2b395U, 0xbedf3695be0aff9dU, 0xbecde46f3dec3bd4U, 0x3e86650a3d3c9dd4U,
  0x3f3e04643bd21cf4U, 0xbf0eb04bbeb34c79U, 0xbe9f814e3ec092fdU, 0xbee80095bcd55c63U,
  0x3e15f2bb3e484e71U, 0xbe39d2fbbdcb3b20U, 0xbd043849bd0862e0U, 0x3ea474abbe27b6faU,
  0x3ef32a57bdd641abU, 0x3f1da3e93cc2e934U, 0xbeba738dbe893403U, 0x3eb62f8c3e7278d8U,
  0xbf1dd2de3cca506bU, 0xbe4f7373be8c7417U, 0x3e772bb03ea1d682U, 0xbf21c7553ea320aeU,
  0xbeef965dbec6352aU, 0xbf23ef333eac78d2U, 0x3f3bfa5bbda47cd0U, 0xbc5b131bbea93ea1U,
  0x3f5581833e6792c4U, 0x3c11040f3edaa81bU, 0xbf1e99823f1834e7U, 0xbe75df03bdd5ba30U,
  0xbc486fc6bf440de1U, 0x3eb22120bf15c5d9U, 0xbed4ae653e2941d5U, 0xbf0bb2bb3e23c391U,
  0x3e526927be99aadfU, 0xbdfee2e2bebc3343U, 0xbec825963de020e4U, 0xbf63f60dbf12d9dbU,
  0x3f33d9673e8b35eaU, 0x3ea623223e6307bcU, 0x3f1fb33e3f443ad9U, 0xbb81da473eaa2651U,
  0xbefb04c93d6470deU, 0x3d8fbbd53ee04e51U, 0xbed2eacbbee4e3cfU, 0x3f09f691bd3dad2cU,
  0xbe57a920bce6cd6aU, 0xbeb70059bdba7ce8U, 0xbf0c2410bed3613fU, 0x3e744b9abeae4018U,
  0x3ec32f65be24d638U, 0x3e925d2c3ea299e1U, 0x3ea8ed763f54c707U, 0xbd62f45a3f14f8d1U,
  0x3dc735c9bccc05f6U, 0xbd2e2265be9eafd8U, 0xbea5dda1bec89403U, 0x3c0a7e773d67b88cU,
  0x3de088c8beadf0f5U, 0x3f1be923bf16c660U, 0xbdfffe1b3f108c52U, 0xbdca62af3e25c858U,
  0x3de1f0b03ee14daaU, 0x3e4b85c63e87c177U, 0x3d26d901bd74224eU, 0x3ec76bf9bf212c40U,
  0x3d6a7a26bf236b7eU, 0xbdf88878bef4a155U, 0xbf90fc91be34543dU, 0x3d1af4afbd306a7fU,
  0x3d4969bcbe1b7d76U, 0x3e8db8ddbecc8417U, 0x3e5447c6be54c114U, 0x3ea7e69ebec5501cU,
  0xbdb5e480be4bcfc9U, 0x3d7d011c3f05e002U, 0xbcb3026fbeaa6375U, 0x3df14bf63f08011aU,
  0x3f4b0f03bec31d1eU, 0xbe086cef3d3a8f9aU, 0x3ea17026be90d382U, 0xbaf71844be488544U,
  0xbe015a2dbe57c2f2U, 0xbe8e83b3bd964621U, 0xbe04158fbe8d4188U, 0x3e97ef773ec46059U,
  0xbe2e7679be24dac2U, 0xbe39b3d83e619c4dU, 0xbec626713e7bc794U, 0x3e9f9ac2bebb9dfcU,
  0x3d71ef2b3eea994bU, 0x3e794d85bed7b354U, 0xbebe5052bedfa971U, 0x3eafe672be021507U,
  0x3e2888d3be2476ccU, 0x3e4df75abea063b5U, 0xbed64ff1bed20245U, 0x3d60d8b1bd3af142U,
  0x3ef743573e4bc2d1U, 0xbea4412a3de1a39fU, 0xbf09047ebdd40516U, 0xbe33c8cebe494fb5U,
  0x3ef122c5bed90e68U, 0x3d9e295abe02e084U, 0xbeb33fb5be7aae49U, 0x3f036d333c60c8b0U,
  0xbd16ae2fbe8ac5e3U, 0x3e994505bd5e2e96U, 0xbeed8cabbeb86d12U, 0xbe2e6a2ebeee00ccU,
  0xbd504c09be52eeadU, 0x3e068f37bbd83800U, 0xbeabc979bdcc85c1U, 0x3e08b9f63e4b78b2U,
  0x3ea7977a3df2cc1aU, 0x3e2c5546be98c353U, 0xbf002ed4bec7ed0dU, 0xbe97a2793d9d974dU,
  0xbdedfe8cbe36c3e4U, 0xbe1af9fcbe951220U, 0xbdebc3d53dfff233U, 0x3e9168113b235782U,
  0x3cbff2a83dae6c3bU, 0xbe2a68d63ecc42d5U, 0x3c3ff09b3e25eb14U, 0xbee249213e893a7fU,
  0x3e590d57bcf061d8U, 0x3c4ca980bf2c545dU, 0xbebc93043e22cb4cU, 0x3df987293ecedc74U,
  0x3dc05fcdbe848d5eU, 0xbdb6796ebe3ef2a6U, 0xbef076233de6c9e4U, 0xbb8ab7433ed814bfU,
  0x3d999e96bd482451U, 0xbd1a17c0be07a0d7U, 0x3e0ed30e3e8aec61U, 0x3d0c09b0be92215bU,
  0x3d06dcdd3e6fc8c4U, 0x3ef73a153ed5525eU, 0x3e2086053e0a0b8dU, 0xbd734bf9be886886U,
  0xbe2aed2c3dd32ae9U, 0xbf4d6a1a3e8fed27U, 0x3d4a2f733e02469eU, 0x3efbb887bea44c57U,
  0xbea036fcbedae91fU, 0xbe6b03e9bd9eaf03U, 0xbe9c7f783e3a6273U, 0x3ec9ada33ef12d84U,
  0xbe9e4b77bed139d4U, 0x3e41d550becbfe6cU, 0xbd443c523e325a84U, 0xbcaedd1e3ebba6e9U,
  0xbef26a9dbc95a273U, 0x3e67a2ffbf41ea4cU, 0xbf6615ee3c21a381U, 0xbdafd5fbba1be9c1U,
  0xbeb4494ebf040248U, 0xbde9ffc53eecbeb3U, 0x3e45364abdd3f2dfU, 0x3c37ba49be0b7f5cU,
  0x3d0a952ebea9129cU, 0x3e76a78f3e2ea853U, 0xbf5d990cbe9a69daU, 0x3df9024f3e447dc5U,
  0x3eb8207cbeb3cf2fU, 0xbdfb3cb43c4f1777U, 0xbdb0d8f1bba6e473U, 0x3e478597bce06f1cU,
  0xbd0059033e80ff97U, 0x3e1abf223db89693U, 0x3f07d3febe552c88U, 0xbe4ffd8abee2d3c9U,
  0x3d6611fbbde360eaU, 0xbe8aaed5bf39ff4aU, 0xbfa2c39b3e13bdc9U, 0xbf3b5f38bebdd081U,
  0x3e2c5d83be0667c5U, 0x3dc2e81a3d2e2e86U, 0x3ecd38e63e8153c9U, 0x3e4454cb3cdf4899U,
  0xbdf94bed3ec1a9fbU, 0x3ec5226f3ea1aeceU, 0xbd9edfc4be67d1a5U, 0x3c915a73be71680aU,
  0x3eb78a84bf004f33U, 0xbe979488be8b7d8cU, 0x3eb61a0b3c77eeecU, 0xbe8bb2adbf172cd7U,
  0xbec3e5163ea6d598U, 0x3e912cebbdf9196dU, 0x3e1277dcbe15102cU, 0x3f1563ae3e95dfabU,
  0xbeff275bbe645279U, 0xbf1490b53ea8a97eU, 0xbe5d02693ea4906dU, 0x3dbe0f6b3e318a40U,
  0x3eeb2c39bf05320aU, 0x3eb850753d589d12U, 0x3e97ba93bea60ec8U, 0x3d8fdb713e16fc84U,
  0xbeac4b193ec06e3cU, 0xbf0f04b33eaed003U, 0x3e63c4893e53644fU, 0x3db0b8923e951116U,
  0xbe1dc1fe3d9e7d40U, 0x3ece90e1be0d33a6U, 0xbe81efcbbe9e3c45U, 0x3f286217bf194640U,
  0x3e0fc69e3e91d72bU, 0x3d94079abda8c796U, 0xbea0e2f13f042b3dU, 0x3ed13ba2bd046f51U,
  0xbe8c2ee93e5be2b8U, 0x3e1bd6f53db2227dU, 0xbd5574c7be9ff078U, 0x3e7a74afbd8a77e2U,
  0xbd0e420d3cc0b499U, 0xbf398ea83eba37e3U, 0xbf2a75dc3e80d859U, 0x3a9a1137bdcfc1c1U,
  0xbdacacd2bf2a2a00U, 0xbe91661b3f49391eU, 0xbda196df3d8562f1U, 0x3e2a2e11bed285a3U,
  0xbe32d181bf2b4ee0U, 0x3e4e752fbd42fd4bU, 0xbe801d66be9b6343U, 0xbeb297603ef61a29U,
  0xbd9e071dbdd44615U, 0x3dd42a223db12f49U, 0x3ed05dd4bea4c811U, 0xbe2ee86dbd5cdce2U,
  0x3e498a58bd0beaceU, 0xbe1fa5e9bd383816U, 0xbe973d3ebea64a7dU, 0xbda86921beb1babeU,
  0xbd1ce5ca3ec0234fU, 0x3ef27c053dbc230fU, 0xbe121cd43ec39501U, 0xbe47d55e3e96b87dU,
  0x3e57146bbed22deeU, 0xbeff2162beb106a8U, 0xbe1896103dad9f2aU, 0x3e8fe8993c952e94U,
  0x3ed276ed3ea8fb3bU, 0xbdaac7f23f0d992dU, 0x3e47192a3e6842f4U, 0xbe6a453b3e7c901bU,
  0x3e21c03cbe858d2aU, 0xbee11a1a3ec28422U, 0x3ebeb276bdae3175U, 0x3eb0a24a3e6ad8ddU,
  0x3e4ad71cbf2bd95aU, 0x3e571e8fbe15ef0bU, 0xbeabf03c3d42d88fU, 0xbdb2feec3e41f47dU,
  0x3e8e8a593e861655U, 0x3e36145e3cc6fb07U, 0x3f0d8a4f3e549408U, 0x3e2778c73e0b7b5bU,
  0x3b8b32923e665c38U, 0xbe17b5673daae524U, 0x3e5a6a1ebf29d0bfU, 0x3eb65041be1ae0e2U,
  0x3ec422e7bead7de4U, 0x3f40cdc83f08efdcU, 0x3cce8763be22a84fU, 0xbe1d4aaebe199b4cU,
  0xbf20d66ebef89487U, 0x3ed143b23f10ed2cU, 0xbf2d8566be8f0eb9U, 0x3d56d875be68d9d4U,
  0x3c3c9ee0bf209269U, 0x3eeed3843ec2a617U, 0xbc2af03dbdbeb753U, 0xbd614b2cbe30de4fU,
  0x3ef49b323e61ab62U, 0x3d9a75dbbf1e59dbU, 0xbec22e073ed210e6U, 0x3eb62ab1bda59c6cU,
  0xbf3e6ffa3e088889U, 0x3e863c6fbdaff881U, 0xbe834fc2bee8da8aU, 0x3dd99e113e2fde96U,
  0x3dfed72cbde0e2bfU, 0xbf1c6d863e4ee447U, 0x3daf8c043e3e01d4U, 0x3d598586be945572U,
  0xbe47d06dbdbb79d5U, 0xbe90a8fc3e6222bfU, 0x3e31d96cbeb171dfU, 0x3ea04a36beabe4c0U,
  0xbca670703ec5a1dbU, 0xbeb6ca873e1da5aaU, 0x3e74165fbc25be0aU, 0xbe02b089bed6339cU,
  0xbdf9e6d3bdebbcc5U, 0x3d8b15fa3e5b6f3eU, 0x3eafa4693db5ce6cU, 0xbc7653c1bda231c9U,
  0xbf46ccfcbe20e98cU, 0x3edd49903e12549bU, 0xbf030d593ddab1b9U, 0x3e5f52ef3e511e52U,
  0xbec93334bf180d8eU, 0xbf09c66bbe95f69eU, 0x3e9e84e4bf0c1ff0U, 0xbebf73d4be7163b3U,
  0x3bf8d9353dc7afb5U, 0xbdedbe593e54a72fU, 0x3eb2c74dbe814119U, 0x3e4ca3eebe61af17U,
  0xbed43dfd3d5efc96U, 0xbf13f3bfbe058b6aU, 0xbd055a12bdad6982U, 0xbf19a0113e0c874cU,
  0xbd2a8facbed48e43U, 0xbec48230bf1bed22U, 0xbe7d90473eab3483U, 0x3e099a9cbda0f050U,
  0x3eb21adc3e38807cU, 0x3e4703fc3e03535bU, 0xbe870792bdda2d94U, 0x3ebf3516be53350aU,
  0x3f1945c73ec541c1U, 0x3de4a58cbe7c89c7U, 0xbde85496bdc17d94U, 0xbf71b31bbea9de7bU,
  0x3cfb0a4fbe253c1fU, 0x3ebda282be0ba724U, 0xbef46fe23ec0369aU, 0xbdc99124380c80a8U,
  0x3e1c4736be95973dU, 0xbf07cfb1bf10f1a4U, 0xbefbefe73ed65456U, 0x3dd072fdbecf34b9U,
  0xbef671d3beb9b5adU, 0x3e0e5ffd3eeb9effU, 0x3ea9870d3deba898U, 0x3e3a166fbe43defaU,
  0xbe6fa1573c96b1ddU, 0x3e0b5f4e3e971517U, 0xbf6c0a75bf141243U, 0x3e766e39be8afd16U,
  0x3ccd035a3dfc78cfU, 0x3e1ad5be3ed431ffU, 0xbcb59c6a3eabbd26U, 0x3e3d67cabd90029cU,
  0xbebfb6003dde886cU, 0xbe423101beee87ccU, 0xbcc4edaa3f032f26U, 0x3d0494503e238a8eU,
  0xbbc381083e1d367eU, 0x3ead5b48bebbf873U, 0xbeeab0ea3e0817b7U, 0xbe37393cbf0315b2U,
  0x3dca595d3e280e36U, 0x3e8c1ae1bef1cea2U, 0x3ca40e1fbeac4237U, 0xbddb5cd73e9ebbb5U,
  0x3e21646fbeaa5948U, 0x3e8c8290bdb01faaU, 0x3e6342d03e391505U, 0xbe79c8463e775fcaU,
  0xbe9a3db2be146305U, 0x3ce1a7e4bec1b728U, 0xbec32009bdd31001U, 0x3ed03512beb42aacU,
  0x3eb37839bdef4107U, 0xbdfb225b3e88209aU, 0xbdd1b7f5bd2842e7U, 0xbe8cb76b3e9c035dU,
  0x3eaa2c14bdea890cU, 0x3ea5e791beb3bcd7U, 0x3e73d6613eb4e35eU, 0xbf08bf0f3d96abc6U,
  0xbe94db163e95f667U, 0xbeefbe8bbe3cd5ddU, 0x3e83c6143db8d23dU, 0x3f0adc75be2b0802U,
  0x3e9a9ea03f075942U, 0x3e20a8a8bf3165caU, 0xbc8f0167bf55ca92U, 0xbdc913263eade421U,
  0xbe31fd003ea3adcdU, 0x3d6530123ebdc01cU, 0x3e9a6d18befbe17aU, 0x3ee133e1beb4c0b8U,
  0xbdd399343e77ad92U, 0xbeaa2680bda268f1U, 0xbe56a5963eae4668U, 0xbc07e0fc3ead6aecU,
  0x3e9f7d4abe869c4cU, 0xbeaeaebd3df166e4U, 0x3d8417963cbf6fd5U, 0x3b1d86b4be2be6eeU,
  0x3d38a305bf00191aU, 0x3ecba6bf3e024addU, 0x3df63bb6be21efa1U, 0x399d78d53e15d8c1U,
  0xbc9df1c73eeb1ab6U, 0xbd6f3647bf2c8995U, 0x3d9e6e13bea80f77U, 0x3e8fbd47bcf14070U,
  0x3ed74e5ebe8a0a1cU, 0x3ef9209bbd1aa828U, 0xbe8bd8a43d28841fU, 0x3e15c4fb3e12f902U,
  0xbcdfef673d330964U, 0xbcc4d3debdfefdaaU, 0xbe96abdcbd8cb3b0U, 0xbe1cfdbf3f31e9a2U,
  0x3d9a0ab63d27f799U, 0x3e81b71bbe3fde42U, 0x3e4785693dc6e442U, 0xbe5c295f3e0dcae4U,
  0xbf0f01473ea8c6deU, 0xbca2cf6f3e262d51U, 0xbcafd3a33ed025fdU, 0x3d86779e3f25ce22U,
  0x3ecb13243ebf0c0aU, 0xbd3b778f3e4b5c76U, 0xbddf5f7f3df58eaaU, 0xbf313b79befafacaU,
  0x3ed68ccdbe0d9373U, 0x3dff61153c0bbd4cU, 0x3e23744e3f25b3eaU, 0x3cbfdd42bd3208aeU,
  0xbe8cf52e3ed0ccfdU, 0xbe982298bdd4df28U, 0x3eb2cf76be68f024U, 0x3ee84fba3de09f1aU,
  0x3e10692db9c71e12U, 0x3cef1279bf1de065U, 0x3df99461bd785909U, 0xbf0b63f43eccb3a6U,
  0xbf0446a33e4ef589U, 0x3f06b29bbe2c8987U, 0xbe9f9da13ee5bcd0U, 0xbe7040e0bdb7f37dU,
  0xbe757c523c977948U, 0xbe9aa380bf4f451cU, 0x3d36b3223ec07609U, 0x3e092f713d95c9beU,
  0xbf2647723e950736U, 0xbe94035a3e49ec73U, 0x3c42ec23bf036aadU, 0x3c06af383cca06a7U,
  0x3f2efb2bbe6d1577U, 0xbe9fa0143f1e0c86U, 0xbed22dacbcbba2e6U, 0x3e1c6bc5beca24ddU,
  0x3ee2d667bee8a61dU, 0xbf1053e5becea01aU, 0xbe4afdaa3e5ce930U, 0xbe020a6f3e899871U,
  0xbea4536d3e91b105U, 0xbead3f44be80bbe6U, 0xbea87787be93ff76U, 0xbdc52db6bf2d5440U,
  0x3ee7ea73bdc6119fU, 0x3eedff9dbe6f474dU, 0xbd3f1331bf016b27U, 0x3d84c7753ec39d1eU,
  0x3d56f6143c1bf7c2U, 0xbf2953233e4f4bfaU, 0x3ea0bd48bf26508cU, 0x3e01580d3e9c3a32U,
  0x3e5c8aa5bdca5529U, 0xbd675a4d3e3e797aU, 0x3edc277b3d4a28f9U, 0xbe1a9588bdbde3faU,
  0x3d4b09343f029a75U, 0x3eb4c8b13f5ab3f6U, 0x3f05060bbe36cef1U, 0xbeab91c5be4d8f22U,
  0x3c0dd5b23e408ef0U, 0x3d8482743d7bc219U, 0x3c2133eebf3f9e8cU, 0xbd83593a3f70311eU,
  0xbe231e0ebe3847fdU, 0x3f006ee93e11a83cU, 0xbe67c00abdc1a5b6U, 0x3dbb3927beabf04dU,
  0xbee5e04c3ed8c922U, 0xbee9c7ed3e060065U, 0x3e9d7d5ebe9f0f1eU, 0x3ddbf87c3dad7f4aU,
  0xbecadd32bd8f5194U, 0xbd6c12cbbd1b7f0fU, 0x3bd4ea1dbf51dfeeU, 0xbd7741b8bdbfa291U,
  0xbe344e723ddab3ddU, 0xbecf71ec3e5ec292U, 0xbe8991643e56e82cU, 0x3da4c92dbdbb3440U,
  0xbef2b6313e837f98U, 0xbe9c2f833b8329a0U, 0xbd4928b1bf012628U, 0x3d726e443e0d23cfU,
  0xbdb6e3c13e9287acU, 0xbd1e052cbe7f3d36U, 0xbbaedf95be3ccbc5U, 0xbe260987beb6da06U,
  0x3e7e576c3dbaba37U, 0x3eb943cbbe2bfdd9U, 0xbee74177bde718b1U, 0xbe8c46bdbe412ec3U,
  0x3e26bc313d95aa04U, 0xbe43633c3e9d6866U, 0xbf3d97a8bf0462d8U, 0x3e42678f3dfb8fbfU,
  0xbe4c5dd9be888bf0U, 0xbe891661bebb3415U, 0x3d8405f7bdda9703U, 0xbe7b8e2ebed62600U,
  0xbdde3a94be9e4986U, 0x3d594d473ea6fe66U, 0xbd9caa773c941648U, 0x3d043ea3bc407d0eU,
  0xbcea51b43d1a7bbdU, 0xbe2f538a3ec96ed8U, 0xbe9a9bf7be929088U, 0x3eae080abe3f4db3U,
  0xbd940f7cbd7ddf65U, 0xbf1903b03ea74dc5U, 0xbf0304113e0493b0U, 0xbee9480ebcc46accU,
  0xbdfb89bebdf9f73aU, 0xbebb365abea7620cU, 0xbe69f3853e4f2db7U, 0x3e180111be8bfc1aU,
  0xbea55d0e3ec2446cU, 0xbf185e493e8e6f5cU, 0x3f0a9d3e3e3b7189U, 0x3e672b4bbde0487aU,
  0x3f25c5d93f119e35U, 0x3ef454563edbe310U, 0x3eb9f605be78aec0U, 0xbe594e723d3d9319U,
  0xbf11bd22bf07c316U, 0xbf671e863dfdb591U, 0xbd6d5ad03e594835U, 0x3d843ada3e6e87eaU,
  0xbe46a79a3e2cab09U, 0x3ea4d04ebe451a06U, 0x3eccf3d53e5348c0U, 0xbe9275b8be49774aU,
  0xbe96f45f3e76c8d1U, 0x3d1e3df53dc5f2e3U, 0xbdae71c4bf548da4U, 0xbdfe8d763f1d753cU,
  0xbef540acbf3a784eU, 0x3f2378f8bd7b0896U, 0xbeb62915bf8bd425U, 0x3f245e54be7dc49dU,
  0xbed14a043ebf0387U, 0x3e8837a1bea1d3d0U, 0xbdd6c6efbe1a6730U, 0x3f086fc2bd8a93a0U,
  0xbfa3f8ccbef8426aU, 0x3d72a52bbec313deU, 0x3dc95532be48d1a2U, 0x3e25947bbdedea1bU,
  0xbf65b430bea8cacdU, 0xbf210bda3d496326U, 0x3e0417853e21a2b5U, 0x3e9adeddbc36ef8bU,
  0xbe9614b43e9c9f69U, 0x3e6fb25c3eda5955U, 0x3eea32c2bed0c245U, 0xbf7528bd3ecb6712U,
  0x3f21f1fd3ea9cc77U, 0xbf08e42ebeb3e0f0U, 0xbdafde8dbebe786cU, 0xbbde3c273e4c4e9aU,
  0xbf01f2f5bd76288fU, 0x3f07f2423eac3dbcU, 0x3f11aa0b3e7ca907U, 0x3e78b053bf4e4ba8U,
  0x3db3ee5a3f28badcU, 0xbd59ffc0beea6d78U, 0x3ea85b4c3f1a3683U, 0x3f139ea7be9c501cU,
  0xbeaa54f6bcde8b16U, 0x3d605bbd3e5e2968U, 0xbf12b835bf3fb28bU, 0xbce13b2e3e95bfdfU,
  0xbe4225143e2e8ec4U, 0xbee5d9f53e835d87U, 0xbf6094a53e926cfcU, 0x3ea2aa33be1af608U,
  0xbe1901d8be224f2bU, 0xbd5e4ee9bcfd2ac7U, 0xbe01e607bd42b83cU, 0xbc64652abe627d71U,
  0x3b9ae2043c688eaaU, 0x3c093891be141e68U, 0x3d5d9001be2bb650U, 0xbdfccffcbdb69677U,
  0xbe2f6bd1bdbd1b7fU, 0xbe2889d7bdf6113dU, 0xbcbc9a63bdc8d3acU, 0xbd8211c8bd58f923U,
  0xbc6718d7be2425fdU, 0xbdefeec9be080b92U, 0xbdd158583c149b10U, 0x3d828aa9bdcee701U,
  0xbe13cb33be16d68eU, 0xbd8f52cdbdbd5c6dU, 0x3d75378cbdbfd6e8U, 0xbd91c7bfbcfee91dU,
  0xbe0c490bbe1255e8U, 0x3d72c340be1bfa09U, 0xbe1b2064bca89198U, 0x3d44fd1fbe237dadU,
  0xbc43b02cbd90b929U, 0xbddc8f73bca0bd18U, 0x3bc22609bd578b34U, 0xbda7bc46bda79409U,
  0xbe0e0c443d69a07bU, 0xbd08a320bad9c0ecU, 0xbda50787bb92604aU, 0xbded25f1bda468ebU,
  0x3e5d75453d87b596U, 0x3e653419bd66de25U, 0xbec0be5fbf1defccU, 0xbd6a003abf3f58b7U,
  0x3f048bcdbe34a14eU, 0x3d487602be7c5217U, 0xbdc4ee803e8c701dU, 0xbf507323bef9687dU,
  0x3ebf6911bee1c818U, 0xbe536f37be679f58U, 0x3c06196cbd8f98c1U, 0xbd9af305bd389bc7U,
  0xbec79f78bf0d913aU, 0x3eab8f703db44c35U, 0xbed2619cbe9180b8U, 0xbcfa8555bef22b50U,
  0xbe5f5326bee66b84U, 0xbea6625bbd38bcaaU, 0x3d91a96bbe2fd661U, 0xbe5378de3e9b05e7U,
  0xbebe23cebe587913U, 0xbea2ca41be907fa2U, 0xbe8516993e40337dU, 0xbdc91896be06e30bU,
  0x3ee1ca5ebc6f7b21U, 0xbd79fe15bf1e4aa1U, 0xbdba3de13edd2467U, 0x3e0bea1cbf6182a8U,
  0xbd22a5503f212fe5U, 0x3d284f16bea372aaU, 0xbdefbb633bd539adU, 0xbdd785a53e8fc63bU,
  0xbe5224a9bded45b6U, 0x3e5746443dc001f7U, 0x3c45e7403eed16e8U, 0xbf201815bf611eaeU,
  0x3f003a25bef88accU, 0x3e2163013ebafbc8U, 0x3e37994cbe532b9bU, 0x3ddbc460bea8a279U,
  0x3e2ff31e3e41e7a4U, 0x3ef61ec1bd90c0c6U, 0xbd7090863ee4e766U, 0xbed6a97fbcb35fddU,
  0xbf7b2207be8c041eU, 0x3e91f7433dd077f0U, 0xbe00049d3d9208baU, 0x3e6745423d88ae6cU,
  0xbe8ec143be8b96d7U, 0xbb06a1083e63a115U, 0x3df8bb8ebebf4c74U, 0x3db32eabbccdaa43U,
  0x3ec5fc2dbf4309e9U, 0xbe6516b0bf09a3ddU, 0xbf5566f5bed9cc4aU, 0x3f3df26a3e5fcce6U,
  0xbe9b33213eb2804cU, 0xbf11328a3ddfe1afU, 0xbe3198d8be83c849U, 0x3ee76907bf1840a7U,
  0xbe350582bd008bc2U, 0xbf488f17be16871eU, 0x3e65b204be99d682U, 0x3e86f0443db846b2U,
  0xbf2372a7bf2bee6fU, 0xbf0b32ccbd2e2761U, 0xbf0b1a8d3d3b239fU, 0x3ea4b7633c6039b0U,
  0x3dd26a8dbe924704U, 0x3cf3d6b9bec7ee73U, 0x3f5bcfadbc4b1a3fU, 0xbe6be837bf25ce14U,
  0x3e60acde3ec24045U, 0x3f1424c63dc4359cU, 0x3f15fae03dadb3d8U, 0x3e50e0833e4cb45dU,
  0xbc2c01cebe81c287U, 0xbeae2c8bbe535338U, 0x3f0f60d9be9933a7U, 0xbeb4892e3eaaf4c9U,
  0xbe911bbebe7c69e3U, 0x3e544ad2be56ea25U, 0xbe0f5f233e89ab3cU, 0xbf163259bec18c87U,
  0xbf09b97d3d32bd8fU, 0xbf0b4cd9bc41d2f4U, 0xbe76992bbf1f4318U, 0xbc94d725bf330632U,
  0xbe315346bd1294adU, 0x3e45e14ebf809359U, 0xbe0c0c07be859de1U, 0x3cce7ba8bf20f24eU,
  0xbeed348fbd7f5813U, 0x3eabf94d3e75e913U, 0xbed251373dde4e4aU, 0xbea57e2dbf7b4dd3U,
  0x3edd29edbe5df6eeU, 0x3be4c6e83ed54153U, 0x3e410475be13eac8U, 0xbdbdd7cc3e6eabfbU,
  0x3f1b2ea9bd20dae5U, 0x3e01fafabe153657U, 0xbf80c29e3cfb24f6U, 0xbf3fa0bcbe91efd5U,
  0xbc791b953e4743a5U, 0x3d790e11bf27da68U, 0xbda00514bf21345eU, 0x3dda3f783e076628U,
  0xbd486e25bd02ea63U, 0xbe00fd073e308a18U, 0xbcdb05663f0a586fU, 0xbe4212793e897ab8U,
  0x3e7b7831be036a41U, 0x3e8e7e18be753ee8U, 0xbe28c3b4bf074103U, 0x3e9799d3be8ecf42U,
  0x3c161df73ed1d6a8U, 0x3b3b61e9becd7b92U, 0xbebc6f94be503cb9U, 0x3ef46683be953847U,
  0xbda9dbee3e233aceU, 0xbe78d862bea2f85eU, 0x3e089c3dbdabc129U, 0xbe9ee0efbe61ff86U,
  0x3f006b12be14f4ecU, 0x3de945913d3f2b52U, 0x3d876c2cbd49b50fU, 0xbf50ef963ebe8b50U,
  0x3db4490bbd8ccba0U, 0xbc9e9d0a3e7252e0U, 0x3ef6a90e3e870153U, 0x3f09530d3f11b928U,
  0x3f2607b7beb2a8adU, 0xbe7f4127bf13c103U, 0xbf72fda1bedbcc73U, 0x3e4238e93e4c458fU,
  0xbd3221ffbe5dd0efU, 0xbe6874dfbe33b448U, 0x3eee57a53eab745cU, 0x3e46cd21be4bc188U,
  0x3e63feab3f38a9d1U, 0xbf1eef773e13b627U, 0x3d7a171ebd947abeU, 0x3f30e738bf00b909U,
  0xbee174a6be465346U, 0x3e4f0f833daa6bafU, 0xbf12ad7abecc1691U, 0xbde7bc82bf0a324bU,
  0xbdcdd318bbd8dc34U, 0x3e9464f8bf306201U, 0x3d11fd8abdeabfd9U, 0xbec8e5563e79dcf2U,
  0xbe24f1693d180c16U, 0x3d98290b3e4eedc5U, 0xbed69b09be869809U, 0x3ef89915be818218U,
  0x3ef319543d755275U, 0xbd13ec673ea8a161U, 0x3f32e215bce39a7fU, 0x3e8bba0cbebec792U,
  0xbef0ab0ebf297506U, 0xbe2120f5be434891U, 0x3e8af5dabf4768edU, 0x3e3be68ebba1e9d3U,
  0xbebca4123e02c79fU, 0xbe29f8213ee229afU, 0x3e9a84b93ef3d51cU, 0x3e778700bf3765b3U,
  0xbe362a8a3e424c4aU, 0x3f0afc913d8130ceU, 0xbee24a75bd98fbecU, 0x3e04fe71bf3a0d29U,
  0xbedda4c5bea99f82U, 0xbbcc7a913f0e8d90U, 0xbeb6446b3ef3d55fU, 0x3e796064be8d1a5dU,
  0x3e63d710bd7dd8b8U, 0x3ecdfcc6be839322U, 0x3e94be493e0012f4U, 0xbf023d4ebde70952U,
  0x3e1b61273e4bd2baU, 0xbd73587c3f1870b2U, 0x3f2e1b58bf2162beU, 0xbe89d29b3e8793e9U,
  0xbdc241f03e676649U, 0x3ead1b8fbe97d568U, 0xbeadc0fcbd386951U, 0xbdaeababbe2e966bU,
  0x3f17b9d53de8242fU, 0x3e733debbea7361aU, 0x3d9b01edbf3c23dbU, 0xbe4167933e8e04d1U,
  0xbd15fe453e357d4fU, 0x3e1fd49c3e5309c8U, 0xbd84c6dd3f071801U, 0xbe30498e3ce43904U,
  0x3f1f2a68bd2ea46aU, 0xbc1f463cbe947b5fU, 0x3ea36b75beef2bc6U, 0x3dc8bde73ef82a76U,
  0xbe4e32cdbf3646d6U, 0x3e3dfca23f08bc3fU, 0x3e2915963f0a217fU, 0xbf04d0683e787664U,
  0x3d4cd90cbe439898U, 0xbec4793a3d36c645U, 0x3e3633573f046a47U, 0x3ed5ca79be421ad4U,
  0x3ef3c8f7bd867669U, 0x3e92acbabd495da9U, 0xbe3dcdb0bf041e10U, 0xbe4a4a86be83a991U,
  0x3e0f27a3be617603U, 0xbf126438bf069ca0U, 0xbea3fc953eceb6c9U, 0x3ea734123e76e317U,
  0xbf4e055e3e05018fU, 0xbf04b54cbe903e89U, 0xbec019bcbcbd6a2bU, 0xbe462994be7ebdefU,
  0xbebe32dbbf43c584U, 0xbf17a3543eeda8ddU, 0xbd077d833eb2a7c4U, 0x3e3ba199bef765aaU,
  0x3e71b8dcbf159c60U, 0x3e8d0ab33ea891eaU, 0xbea65d80bec63f3aU, 0xbf2af0a23e08134bU,
  0x3f1df1ebbde9f792U, 0xbb841e1b3ea3682cU, 0xbcf427a83dbf3294U, 0xbf4d3828be9d2e7aU,
  0x3dad111dbe986b53U, 0xbda473a2beb117cdU, 0x3ee72fdcbe680217U, 0xbdc04315be724739U,
  0xbf25d2c83ea90b43U, 0xbe844ef83e3ff3cdU, 0xbe7d98393dc09cdfU, 0x3ea5e7993d2811bdU,
  0xbec2e6363d9b2103U, 0xbee1b439bf507e34U, 0xbf27d1043c61115cU, 0xbf2913c0bd7baadeU,
  0xbebc8cf7bdcbc769U, 0xbf2f6c1c3ea6b023U, 0xbddc5ce8beb39b55U, 0xbeeaf1d0bea103efU,
  0xbe359067be1f39f8U, 0x3ecbed9cbe2f6dfaU, 0xbdd85ebebde29553U, 0x3e6d173c3e86cf97U,
  0xbd703e2d3e15515cU, 0xbe4dda75ba0abf0cU, 0xbceba1fc3f1836d1U, 0x3e6f464d3e15361cU,
  0x3d8a6920bd599750U, 0x3daa6c97bea98252U, 0x3f41ee6d3e39cd3eU, 0x3e6be8423f23e519U,
  0xbed0c496beadeb10U, 0xbdbe0d71bd5188a2U, 0xbe9785d33e53e534U, 0xbec17986bdb0342aU,
  0x3ecfcb993eac15c0U, 0x3f21ec26be180888U, 0xbe5faed3be8270b3U, 0xbeb5bc6bbea7f32fU,
  0xbed2abc13f5d878eU, 0xbe9332113f12795dU, 0xbf307ae9bdefcbe5U, 0x3e02eb0dbdbb4c27U,
  0xbd7be45c3d8138e0U, 0x3e4829f1bde1ce3fU, 0xbdecd0e1be8781eaU, 0xbdcbf6ec3e1e4541U,
  0xbe9930b73e26156eU, 0x3f0e1888bf22dba9U, 0xbce112203dd49121U, 0x3e65aaf73f160632U,
  0x3eb853c63dd94fb4U, 0x3eca0168baa0ddaeU, 0x3dd5bdc7bedae626U, 0x3f22f15b3e65a5ecU,
  0x3edc9fd53e60b8a7U, 0x3df9ee71bf0783f9U, 0xbef3d0dd3e3565c5U, 0xbd413bdd3e1f99f9U,
  0xbdd43ea7bd967566U, 0x3e05cbdd3d952ce9U, 0xbe3cc7133e7fea6dU, 0x3c9c0967be0ac403U,
  0x3e0e0512bed2fca7U, 0xbd0d7ba53dfb7f55U, 0x3e7d3b543e82a696U, 0xbe68bb593d9230f7U,
  0xbdc1bdad3e2fb318U, 0x3f1f05d43e583dc2U, 0x3dff038dbf1c4a47U, 0xbecbbf06bf61cf87U,
  0xbf3a02153f30f0ebU, 0x3e2d09e4bdc9ad4fU, 0xbe64a33a3eb871a6U, 0x3f52c16b3eacb90bU,
  0x3ea73c69bf1d0b9cU, 0x3e69f739bf001364U, 0x3e1273673edf67b9U, 0x3ee4870dbde98d5dU,
  0xbf5f3990bd6d5809U, 0x3c9053253d5326aeU, 0x3dd2105abd0b00fcU, 0xbf266d07bf26fb4fU,
  0x3eb5d5143e947fc3U, 0x3dc716e43e2d75d8U, 0x3e3694d33ebcffccU, 0x3db589263e477698U,
  0xbf3473963e9a53f4U, 0x3dd8fcb5bf259881U, 0xbefe8b863de4d0d9U, 0x3e30c7f7bddcd9c7U,
  0xbf25cc70bd87db2fU, 0xbe82e6b23e2c28e3U, 0x3e97fcbabf286da0U, 0x3f16ca6bbc1af45bU,
  0xbe235145bf6bf499U, 0xbedb3c2a3c973c28U, 0x3dad13c23ee9aaadU, 0x3dd70877bf1b1d23U,
  0xbbce2496bea3bc3fU, 0x3a76a7d4bf283a39U, 0xbe9da099bdc25ee4U, 0xbf2b1de2bf6cbfddU,
  0xbe8b609cbe7ce474U, 0xbe7aaf49be8748d1U, 0xbe35a36dbdfb759eU, 0xbf16a519bda789a8U,
  0xbca37b20be5ac502U, 0x3e23a55e3e2b5a75U, 0xbec1f7e23e66ec06U, 0xbef8bdbd3e5853d6U,
  0xbecf2b473f1add7dU, 0xbc9513913da93f44U, 0x3e87f0f0bd5fe1e6U, 0x3e3dcf40bcb4f5d6U,
  0x3c27dd48be9deec7U, 0x3c18c126bf2400eaU, 0x3d01547f3e96fbf0U, 0xbf286daebf0e1d51U,
  0xbf265350be8a180fU, 0xbf091f633d27616eU, 0xbecc9f30be0dd6a2U, 0x3daa4245bebd16aeU,
  0xbf08dbc93ee8d0caU, 0x3e31c0a83f00d771U, 0xbf3e5dd63ea96a25U, 0x3e9d2e823d7f2575U,
  0xbf0d0ea03e19a2e8U, 0xbe05f8783ec34682U, 0x3d98c5473e67ed09U, 0x3e7eb4b3bb069c80U,
  0x3e987e4ebde46f7dU, 0x3f1781b93e85b585U, 0xbee172763e843a83U, 0x3e7122c9bee9f3d9U,
  0x3df86598bd3b43a1U, 0xbd8b7096bdeb3bebU, 0xbec41187bd688e39U, 0xbeb9d5a13de397a4U,
  0x3c59c0e0bdb0ba9cU, 0x3dcb7d453e56e905U, 0x3efe42623e7bea48U, 0x3ca33053beef4e36U,
